chassis	11832
cadet	12738
leah	14188
planting	14685
gangs	18542
harmonic	19452
condo	25805
effectiveness	12353
##400	29537
polite	13205
##istle	24242
competitions	6479
undead	17315
##rdes	26371
censorship	15657
##americana	27026
disciplinary	17972
##iciencies	28227
adding	5815
##scent	27654
sahara	19604
chevy	29009
[unused758]	763
exists	6526
##hop	18471
hypothetical	25613
wo	24185
sniff	27907
dryly	20825
kaladin	22588
throws	11618
shaft	9093
prohibited	10890
4th	4343
ـ	1290
averages	20185
neill	11511
differing	16965
vidal	29259
suggestion	10293
addressing	12786
##wife	19993
humidity	18213
financial	3361
require	5478
boundary	6192
clary	13145
exploring	11131
fred	5965
liga	8018
##jet	15759
mud	8494
enter	4607
##erate	22139
simulations	24710
stint	12116
eileen	20495
##isse	23491
ᴮ	1491
##path	15069
barack	13857
luton	17807
exponential	27258
##zzi	13793
1915	4936
##也	30276
き	1652
bravery	16534
forgotten	6404
travers	29053
sox	9175
responsibility	5368
shining	9716
pray	11839
##ya	3148
kerr	14884
toast	15174
mitochondrial	23079
[unused68]	69
kennedy	5817
automotive	12945
scholars	5784
assessed	14155
anthologies	25675
##aka	11905
##´	29658
resumed	7943
pedestrians	24946
requested	7303
##ecin	28191
however	2174
manager	3208
generated	7013
patrols	14703
lobbying	19670
lawyers	9559
philippine	7802
strongly	6118
punishments	29115
burned	5296
pitchfork	22355
carpathian	26349
##llar	17305
killing	4288
nairobi	21124
##oured	16777
##定	30348
##uze	20395
chants	29534
primary	3078
acoustic	6490
requiring	9034
assurance	16375
manchu	26650
1933	4537
shouldered	29383
##nes	5267
nonetheless	9690
para	11498
five	2274
##ﬁ	30510
canopy	14582
##imate	21499
koln	28306
scores	7644
blooms	29037
[unused705]	710
##puram	17809
##ali	11475
flexible	12379
1685	25053
nothin	24218
voice	2376
trench	14185
pause	8724
hesitation	13431
possess	10295
ze	27838
purpose	3800
rallied	24356
ked	16135
invest	15697
##raj	14220
##dda	25062
部	1960
engine	3194
freeway	10846
##47	22610
shirt	3797
##90	21057
caf	24689
[unused812]	817
##works	9316
conjunction	9595
heroic	14779
maha	24404
scenarios	16820
armando	26716
staff	3095
canary	17154
gains	12154
[unused19]	20
donetsk	29151
volunteered	14382
##ᅮ	30014
intuitive	29202
defining	12854
sun	3103
landfill	28382
farms	8623
##yan	7054
abusive	20676
indicating	8131
uganda	10031
##active	19620
ward	4829
##carriage	21539
macedonian	13037
##樹	30410
online	3784
whisper	7204
armagh	24678
1930	4479
[unused101]	106
different	2367
desk	4624
ridley	20608
beings	9552
##lars	28695
tunic	23002
objectives	11100
hanged	17818
aero	18440
##chai	24925
##vation	21596
loyalty	9721
koppen	20139
flour	13724
provoke	27895
unlock	19829
lavish	22689
fran	23151
midfield	23071
[unused21]	22
hit	2718
rwanda	17591
lists	7201
mussolini	22554
910	27743
utterly	12580
carried	3344
committed	5462
cheer	15138
bayou	24818
222	19015
nice	3835
reginald	14435
##æ	29667
prepared	4810
##₈	30084
novak	19580
##umber	29440
##a	2050
consul	11801
##iani	25443
##ʼ	29712
[unused718]	723
resembled	15881
reversal	23163
donnelly	28317
sydney	3994
incurred	22667
punch	8595
##wright	26460
##●	30146
librarian	13850
exempt	11819
gale	14554
##ib	12322
vowel	12710
complexion	28838
jesse	7627
fastest	7915
unexpectedly	14153
badminton	14618
disapproval	21406
tainted	26392
ᅮ	1478
armor	8177
⁷	1541
[unused414]	419
द	1325
sensing	13851
examine	11628
papal	12156
184	19681
seek	6148
govern	21208
##bag	16078
##game	16650
talking	3331
shore	5370
##ques	10997
bismarck	22029
fullback	21803
sho	26822
total	2561
1948	3882
1857	8204
abbas	17532
contrasted	22085
marlborough	22830
swearing	25082
##powering	23948
acquaintance	18363
semiconductor	20681
reaction	4668
judging	13325
coordinator	10669
bottoms	24196
##law	14919
indefinite	25617
throughout	2802
fulfill	13883
##yala	28617
heaved	19970
wired	17502
acid	5648
pioneers	13200
emir	23434
feel	2514
youthful	22446
##yi	10139
##pathic	25940
deal	3066
policemen	19809
mutual	8203
protests	8090
##just	29427
hailey	21664
plays	3248
parking	5581
exercises	11110
##esthesia	25344
idiots	28781
believe	2903
offerings	14927
epsilon	28038
labyrinth	24239
middle	2690
centuries	4693
智	1869
recalled	7383
nasty	11808
straining	21366
axe	12946
actors	5889
teams	2780
dogs	6077
stakeholders	22859
order	2344
##ia	2401
##atable	27892
425	23285
phyllis	20328
muttered	6250
cole	5624
exactly	3599
bare	6436
crusader	25237
trials	7012
##व	29871
glazed	19724
finch	16133
##rval	26585
injury	4544
notion	9366
##uchi	15217
greenland	16128
employing	15440
blazing	17162
fins	18564
ala	21862
seth	6662
ventured	20510
##م	22192
[unused820]	825
hooves	28399
represent	5050
credits	6495
%	1003
##birds	12887
[unused118]	123
coke	14492
zhu	15503
##崎	30360
##hy	10536
##sius	24721
margarita	24570
inclusive	18678
##fies	14213
records	2636
supplied	8127
massive	5294
##tead	14565
##tracted	24301
totally	6135
crater	11351
trophy	5384
[unused353]	358
##ord	8551
ん	1691
##dy	5149
128	11899
proportional	14267
##pp	9397
contain	5383
tow	15805
owes	24381
[unused770]	775
duchy	11068
cyber	16941
gradient	17978
unanimously	15645
mansions	26842
fremont	22550
signaled	22319
prussian	10734
##פ	29807
brought	2716
plan	2933
shortages	22623
mesa	15797
fit	4906
unspecified	25851
drawings	9254
conducted	4146
approval	6226
affiliated	6989
##iq	18515
estimation	24155
##osis	12650
mobilization	25580
vendor	21431
theodore	10117
ambitious	12479
persia	16667
fetal	25972
renumbered	27855
produces	7137
##ories	18909
cavaliers	25096
blazed	25590
printer	15041
chicken	7975
##aia	27131
kentucky	5612
##ʁ	29694
##ices	23522
contradiction	26917
lash	25210
garde	14535
国	1799
##erik	27350
##ulation	9513
forks	19896
fished	26281
arteries	28915
generations	8213
barry	6287
68	6273
allowed	3039
boulevard	8459
relied	13538
harrington	19760
[unused554]	559
[unused783]	788
》	1640
rollins	23502
willow	11940
[unused904]	909
homecoming	20772
mig	19117
bravo	17562
peeled	20956
ィ	1694
stirring	18385
cafes	23812
raped	15504
defines	11859
##ra	2527
xavier	10062
encoding	17181
make	2191
scroll	17186
linguistic	12158
pack	5308
knocked	6573
limousine	28012
щ	1204
razor	15082
##zam	20722
##kor	21815
irregularities	28868
##bre	13578
##ze	4371
precise	10480
pt	13866
##lite	22779
monk	8284
bodyguard	16174
##anga	18222
gall	26033
m	1049
conflict	4736
nave	12847
##bbies	27982
winding	12788
malls	25943
crouched	14275
##cr	26775
fraction	12884
##tream	25379
tired	5458
ronald	8923
##world	11108
clan	6338
serge	21747
receiving	4909
admission	9634
164	17943
##encies	15266
trance	16588
323	25392
##erved	25944
flinched	19201
avengers	14936
prefect	19402
loyola	21580
committee	2837
##egorical	27203
##twined	21077
exile	8340
maximum	4555
##oman	20778
handel	21465
37th	23027
##ingen	15542
penthouse	22855
##note	22074
stratford	17723
surfer	27747
span	8487
##ilde	23891
molded	27992
vincenzo	24712
ensuring	12725
##nick	13542
temperate	16868
enclosure	17539
unite	15908
diamond	6323
winced	15574
##bino	21891
conserved	19995
1729	28449
##ssen	14416
saline	28413
recovery	7233
##yana	16811
legendary	8987
penultimate	25512
##zuki	24015
##owing	14138
trieste	25199
dissolve	21969
detected	11156
bobby	6173
##nco	15305
[unused278]	283
##ama	8067
[unused333]	338
ª	1076
1775	14276
[unused827]	832
patrol	6477
stature	21120
reproduced	22296
pact	14790
##gus	12349
exercise	6912
byrd	17845
kildare	24275
sang	6369
valencia	13083
witty	25591
secession	22965
eliminated	5892
surroundings	11301
ether	28855
##nac	18357
falls	4212
fours	23817
##iso	19565
##cott	13124
mingled	25959
comment	7615
planetary	17700
1800s	19878
possessing	18840
sirens	20675
defective	28829
encourage	8627
sussex	9503
##อ	29957
aesthetics	20749
bronx	14487
harsh	8401
reflection	9185
[unused731]	736
##qual	26426
functioned	20903
coil	17085
davy	23255
company	2194
perceptions	23271
condom	20910
danielle	18490
interventions	19388
seemingly	9428
swallowed	7351
weekend	5353
世	1745
container	11661
underworld	13607
##arable	25236
socialism	14649
f	1042
[unused199]	204
issued	3843
users	5198
barker	12852
booster	23715
ata	29533
##ano	6761
worn	6247
[unused797]	802
ह	1339
medications	20992
confinement	21551
combines	13585
seamus	24993
hoisted	27269
ں	1306
reminiscent	14563
##nche	26091
##rno	19139
quoted	9339
deutsche	11605
##imeters	28136
settings	10906
snorted	15235
xbox	12202
afghan	12632
nail	13774
[unused110]	115
centrally	25497
simulate	26633
conquest	9187
clapton	24705
stab	17079
ponytail	18865
victorian	6652
138	15028
mustard	23187
stanza	29509
##won	19291
china	2859
contracts	8311
outpost	21080
opposed	4941
dietrich	22567
scents	29254
##jected	24455
trash	11669
focal	15918
##na	2532
treaty	5036
pediatric	23614
licence	11172
curran	19649
logged	26618
##gos	12333
キ	1701
loan	5414
bromwich	27888
giro	19226
blanco	20036
distinguishing	20852
1810	11786
schumann	29448
tractors	28292
excessive	11664
##hari	18428
##ining	24002
cessna	27664
adult	4639
khalid	21828
vanishing	24866
cinematographer	19245
ski	8301
des	4078
mental	5177
nu	16371
cite	21893
1962	3705
[unused112]	117
biographical	16747
coupe	15130
vaccine	17404
detailing	17555
）	1988
·	1087
joachim	17286
##bir	17706
underwood	22751
zagreb	12974
betting	19244
markedly	29295
##კ	29982
marrow	24960
sweet	4086
1917	4585
watery	28259
evenly	18030
##cao	20808
##inho	29344
stop	2644
slug	23667
##bbling	15343
oxygen	7722
16	2385
participate	5589
malaysia	6027
relocate	20102
trinidad	11856
catfish	23723
restricted	7775
##ব	29904
voss	24878
agriculture	5237
##blood	26682
philosophers	17586
escaped	6376
coat	5435
patterns	7060
##bb	10322
reza	26323
glover	20012
鈴	1965
sculptor	10160
[unused974]	979
omitted	16647
ʁ	1128
1778	16331
quartermaster	24688
consulted	17535
expecting	8074
##zer	6290
hurdle	27630
##jon	14339
dish	9841
ي	1300
georg	12062
pius	14363
##г	29741
berth	17064
ceramics	17314
landfall	21042
compared	4102
various	2536
aligned	13115
bytes	27507
exercising	28428
metres	3620
shattered	10909
beers	18007
reunited	11653
legions	23269
prophets	23172
cdc	26629
rom	17083
transformers	19081
##zan	13471
ruined	9868
recruiting	14357
endeavors	28809
gland	25320
respond	6869
‿	1534
makers	11153
coordinating	19795
urges	23876
##odle	26156
theologians	29013
rf	21792
##52	25746
##raf	27528
indicator	17245
lodge	7410
hansen	13328
engaged	5117
showcase	13398
##mba	11201
officers	3738
sculpture	6743
cruising	22206
camilla	26902
sired	26940
letting	5599
##bau	27773
homo	24004
##ser	8043
assimilation	27574
davis	4482
##g	2290
refuse	10214
##bread	27035
##hine	14014
futsal	21921
purdue	19749
kolkata	13522
##lide	24198
completing	7678
plastic	6081
abbreviated	12066
##break	23890
##rgo	18581
universities	5534
whole	2878
wrestlers	14039
##bold	27495
overcoming	27363
since	2144
[unused246]	251
richie	14411
etc	4385
cavalry	5945
##fleet	27657
gymnastics	14002
##lby	14510
1960s	4120
assigned	4137
##lander	22691
enigma	26757
##scu	28817
vii	8890
buckled	26368
rosario	17496
bloomberg	22950
[unused755]	760
part	2112
contributor	12130
eds	11985
##[	29634
causes	5320
secret	3595
hottest	20930
relieved	7653
##urai	24804
complied	26946
##39	23499
##wl	13668
ax	22260
##cuit	28168
##tched	28265
jamie	6175
##tted	16190
ups	11139
spp	26924
shortstop	25359
cognitive	10699
870	28864
auditioned	23008
m1	23290
normandy	13298
twins	8178
##bas	22083
loops	15932
buckle	22853
##via	9035
experienced	5281
viii	9937
stimulation	20858
ල	1406
spur	12996
vocalist	8032
gough	29124
soto	22768
telephone	7026
##court	13421
widened	8723
housekeeper	22583
##41	23632
##yx	17275
connects	8539
bafta	22284
##ნ	29985
superstructure	28391
artwork	8266
##with	24415
malta	9933
captures	19566
##eva	13331
surrendered	10795
daryl	22514
kindergarten	11793
北	1781
enjoying	9107
##ones	21821
uncomfortably	22502
##lellan	25839
circulated	17640
daring	15236
mandal	24373
##ulus	11627
##э	29756
proximity	10039
fishes	21995
##ada	8447
allegations	9989
accord	15802
##riam	25557
stark	9762
##₇	30083
jung	11810
mariana	22097
##rued	28551
icons	18407
procedure	7709
##gny	19393
wharton	24249
diaz	12526
left	2187
ghanaian	27202
ব	1368
gonna	6069
slant	27474
attorneys	16214
saber	25653
##ps	4523
##♥	30152
##lden	28476
negotiate	13676
##estra	26199
alliance	4707
intellect	24823
ada	15262
uneasy	15491
110	7287
##mm	7382
caucasus	16512
157	17403
purity	18433
contracting	21012
rattle	23114
succeed	9510
spaces	7258
##sol	19454
1643	25534
lingered	17645
croydon	21838
personnel	5073
cruisers	16722
##hma	22444
station	2276
hearst	25419
##mation	28649
##apes	29040
specializes	16997
glared	9400
sandra	12834
yorker	19095
ா	1395
พ	1414
grief	9940
##ure	5397
physically	8186
fling	27655
profitable	15282
rusty	13174
equestrian	19191
##side	7363
lu	11320
dodgers	13391
tugged	10621
precious	9062
boxer	10423
tailed	14578
queer	19483
listener	19373
comparatively	20172
yanking	25716
responds	16412
rec	28667
blind	6397
amherst	19850
[unused154]	159
maddy	20789
frustrating	25198
stanford	8422
##ologists	16886
villiers	25333
ian	4775
variety	3528
invitations	29492
न	1327
brighton	10309
frankenstein	22478
rumored	22710
attack	2886
meals	12278
cornell	10921
##介	30285
##tering	17989
[unused792]	797
wings	4777
stripe	18247
ways	3971
ি	1379
electro	16175
##cate	16280
jonny	26937
##ר	29811
seminal	20603
##wad	26016
##ayan	25868
##zbek	28733
defeats	14222
extracted	15901
comfort	7216
bp	17531
明	1865
representative	4387
squadron	3704
##mon	8202
constantine	12790
neighbourhoods	27535
booker	16674
##ʲ	29707
colonies	8355
##bula	28507
marginal	14785
constituent	13794
quit	8046
gavin	9448
ו	1246
dragons	8626
bolivar	22118
1723	26621
reed	7305
super	3565
goa	15244
leopold	12752
##ania	13241
gun	3282
gu	19739
denied	6380
##orro	29459
swamp	11963
[unused215]	220
arrests	17615
rossi	18451
mohamed	14467
##borne	19288
rainfall	10101
[unused38]	39
cultures	8578
modification	14080
sporadic	24590
##lence	22717
sophia	9665
halo	17201
##cas	15671
bleak	21657
##lica	19341
clouded	26761
ष	1337
traveller	21916
asks	5176
pupils	7391
claws	10702
##yce	29297
classrooms	12463
physicians	11572
##ahl	28083
peptide	25117
##‰	30065
##ception	24422
motivated	12774
williamson	14333
chung	15972
pinyin	9973
lansing	22304
##կ	29774
♭	1627
tasks	8518
aura	15240
true	2995
dizzy	14849
widows	24835
wrinkled	15968
br	7987
farming	7876
##thorpe	22398
loose	6065
indonesian	9003
korean	4759
##uk	6968
installing	23658
wise	7968
diaspora	18239
##len	7770
blessing	13301
##bil	14454
goldberg	18522
##asi	21369
resolution	5813
ʑ	1137
avenues	20859
automatically	8073
probably	2763
dylan	7758
behavioral	14260
##and	5685
capture	5425
##chuk	26516
##lance	23078
broke	3631
hospice	29277
cantonese	22241
dockyard	24874
##stituting	21532
patents	13979
##holding	23410
##dae	6858
burn	6402
##ay	4710
losing	3974
of	1997
##ل	23673
might	2453
alarmed	19260
apt	26794
##フ	30246
failed	3478
##ods	20620
appropriated	29223
[unused34]	35
sheltered	18304
praised	5868
landed	5565
##ert	8743
val	11748
intensive	11806
ruin	10083
couple	3232
[unused924]	929
net	5658
##link	13767
latvian	14698
fools	18656
bret	25626
wrexham	27119
jimenez	22790
hayward	21506
keller	16155
feat	8658
montevideo	22460
choirs	24743
rumors	11256
crowe	25657
##llus	20159
consciousness	8298
trusted	9480
neighbor	11429
insisted	7278
curse	8364
fry	14744
[unused674]	679
bis	20377
pleasant	8242
putnam	20230
looted	27775
ist	21541
memorandum	20336
##pment	24073
980	25195
##nson	15551
##tly	14626
provost	18523
tottenham	18127
[unused30]	31
temporary	5741
consonants	19694
defiant	27836
##dles	27822
lanka	7252
unwilling	15175
##sten	16173
contests	15795
##॥	29881
##yo	7677
crore	21665
kb	21677
tina	11958
uneven	17837
obliged	14723
charlton	17821
sprinter	19938
cleaning	9344
ע	1259
151	16528
[unused538]	543
commitment	8426
lobster	27940
[unused222]	227
hound	19598
nanny	19174
unsuitable	25622
lux	28359
nomadic	21702
indeed	5262
[unused238]	243
cooper	6201
vengeance	14096
[unused659]	664
chimney	17321
##δ	29722
respectively	4414
subunit	24312
elsie	24603
##suke	16867
blinking	15997
pieter	23759
intricate	17796
##plicity	27293
germany	2762
##₅	30081
demos	18267
##nda	8943
simulation	12504
retrieval	26384
mclaughlin	23720
malayalam	12998
patches	13864
santa	4203
ghosts	11277
##wei	19845
##uca	18100
##nen	10224
punjab	9213
consumer	7325
cumulative	23260
shadowed	25843
adolescence	29101
h	1044
galaxies	21706
editorial	8368
gift	5592
lasting	9879
##rating	15172
yeah	3398
catholics	10774
##ier	3771
colder	21399
according	2429
flung	14016
minorities	14302
dough	23126
envelope	11255
ry	29431
historical	3439
player	2447
ط	1286
uses	3594
##sling	28886
‑	1514
parts	3033
subway	10798
messenger	11981
cues	23391
body	2303
lucky	5341
##runa	26605
congenital	27480
pneumonia	18583
chiba	27368
observation	8089
honored	8686
##dini	26039
lim	18525
connecting	7176
addicted	23042
2	1016
##kers	11451
y	1061
laude	21602
年	1840
[unused569]	574
##quist	18331
straighten	28568
stubborn	14205
amateur	5515
obligation	14987
finances	16156
mustache	28786
##ford	3877
fired	5045
pieces	4109
mouse	8000
regards	12362
successfully	5147
bruises	18438
duty	4611
floated	13715
1680	24621
sword	4690
rebelled	25183
##erty	15010
1792	13414
torre	22047
locked	5299
##nx	26807
wr	23277
brazilian	6142
318	27003
flesh	5771
gearbox	22227
食	1978
ideals	15084
1989	2960
##nched	19282
armies	8749
johnnie	27716
analytical	17826
vision	4432
stores	5324
anita	12918
whom	3183
coding	16861
fabrics	25123
metallic	12392
hiking	13039
highly	3811
groundbreaking	23222
##พ	29950
##tori	29469
reid	9027
hundred	3634
flash	5956
##თ	29980
subsequent	4745
castles	15618
innsbruck	28914
teen	9458
per	2566
except	3272
280	13427
aesthetic	12465
municipal	4546
anonymous	10812
interrogation	16871
basically	10468
##rland	18324
##corp	24586
##odies	27391
frenchman	26529
ᅧ	1474
brass	8782
fireplace	13788
bean	14068
macarthur	17719
##ings	8613
1765	20797
т	1197
ν	1167
ニ	1716
פ	1261
holden	9988
##ducted	29510
quentin	15969
##feld	8151
ʲ	1141
governor	3099
[unused273]	278
joey	9558
occupying	13992
see	2156
kant	26044
irrelevant	22537
bigger	7046
publishing	4640
դ	1222
cassette	13903
chili	20238
##陳	30498
website	4037
its	2049
plaza	8232
graffiti	17990
##mined	25089
cd	3729
lucifer	24184
safety	3808
september	2244
##neuve	28104
↦	1588
trick	7577
kendall	14509
assumed	5071
[unused863]	868
##ivar	28739
steven	7112
greenfield	26713
filthy	18294
##მ	29984
ᵐ	1502
journalist	4988
devout	26092
##cap	17695
salvage	18340
##urst	29402
hygiene	19548
oils	20631
effort	3947
[unused342]	347
cheeks	6029
wearing	4147
list	2862
##yeh	25673
implication	25323
miami	5631
##tu	8525
subjected	13532
##enberg	11029
wildcats	19495
advice	6040
mesopotamia	25889
westminster	9434
cans	18484
moderator	29420
##ı	11722
vittorio	25914
wounds	8710
⁸	1542
wien	22782
publicly	7271
##yria	20379
trolley	20820
eternal	10721
##hampton	21946
concurrency	24154
supervision	10429
jai	17410
wishing	10261
closeness	28398
avila	29079
##手	30384
distributed	5500
intensified	15767
##roving	22046
cites	17248
crossings	20975
##se	3366
chose	4900
nantes	25387
genius	11067
##jit	18902
##bilities	14680
coefficients	21374
mel	11463
##nce	5897
##witz	15362
hauling	23113
##isen	28992
qc	25196
##taken	25310
publications	5523
##tian	10772
swans	26699
shaped	5044
peugeot	26385
upscale	28276
barbarian	25075
helpful	14044
prague	8634
hagen	24047
ruining	27853
partridge	26079
libyan	19232
anand	18887
[unused192]	197
torino	24737
xiv	15939
nehru	23556
volcanoes	23694
plaintiff	20579
themed	11773
[unused402]	407
beaver	13570
cops	10558
minority	7162
powell	8997
recommended	6749
kick	5926
gotham	22814
shouting	11273
geo	20248
jana	23341
mark	2928
dynasties	23014
booking	21725
##lde	17920
##maid	28478
ballast	28030
##tao	28555
##cks	10603
commercials	12698
smell	5437
volunteers	7314
juicy	28900
jeff	5076
blocks	5991
1943	3826
symbols	9255
cdp	8561
xinjiang	25904
liar	16374
english	2394
arterial	25543
河	1899
##iri	15735
genevieve	20245
ball	3608
stretches	14082
##ffed	15388
##enting	26951
imagery	13425
belief	6772
brakes	13627
##ivate	21466
similarity	14402
irving	12415
dayton	14700
grind	23088
gang	6080
feminist	10469
bucks	14189
fishery	22880
##vent	15338
overgrown	26433
shelter	7713
horst	28565
##ʾ	29713
strap	16195
investors	9387
doubling	19383
hal	11085
disney	6373
discusses	15841
threatening	8701
nautical	11339
や	1682
##lkirk	23913
##xide	19491
dusk	18406
##ifiers	28295
[unused272]	277
gaming	10355
frontal	19124
##post	19894
botany	17018
halifax	10475
directors	5501
commencing	25819
soprano	10430
tributary	8914
matches	3503
##eim	12112
kinda	17704
cr	13675
leaping	21216
citation	11091
retreated	11672
eduard	20424
campaigned	16196
enriched	25202
serial	7642
fights	9590
academia	16926
troopers	26246
##rrier	27051
##wat	24281
53	5187
crews	10604
##vish	24968
elect	11322
##om	5358
lester	14131
1861	6863
slap	14308
camp	3409
shoving	15866
##ක	29939
vols	18709
blog	9927
solomon	9168
alumni	9441
√	1600
##rini	22612
山	1831
auf	21200
gus	12670
tobacco	9098
taipei	14004
privacy	9394
paxton	27765
##zai	25290
vase	18781
±	1081
memory	3638
bethany	16559
expenditure	20700
##gen	6914
##rol	13153
crowd	4306
fjord	26158
##ilation	29545
lays	19764
confessions	21444
advances	9849
[unused543]	548
confidence	7023
##uch	10875
hernandez	13688
repetition	23318
juan	5348
hawkins	13835
750	9683
nicola	17388
scholar	6288
##ssion	28231
prosecution	11537
axis	8123
##bians	26376
teased	13074
traverse	20811
western	2530
sg	22214
feeds	14172
breakthrough	12687
1856	8708
intermediate	7783
##ended	21945
710	27671
edition	3179
simplest	21304
84	6391
emissions	11768
guangdong	21287
[unused816]	821
##vili	21661
nasal	19077
reservations	17829
memorable	13432
hawthorn	21671
remind	10825
dirt	6900
barnes	9957
ford	4811
facilitating	25505
easter	10957
rely	11160
messy	18307
win	2663
luminous	25567
##ович	16198
rafael	10999
focusing	7995
antics	27440
lexie	24123
##dun	27584
##一	30266
litigation	15382
deadly	9252
nix	23330
frowned	7335
wta	21925
speed	3177
choral	14564
removed	3718
gettysburg	22577
##hli	27766
##প	29903
talked	5720
##54	27009
revisions	24699
##հ	29775
dante	9649
sparkled	28092
##vir	21663
populated	10357
sticking	13423
sol	14017
stairway	21952
casting	9179
drank	10749
##glia	20011
stokes	18716
paler	24489
warehouse	9746
lumber	13891
##500	29345
diplomatic	8041
arose	10375
purchase	5309
squares	14320
##shan	9688
synthesizer	13564
newcastle	8142
drama	3689
##nova	13455
erotic	14253
##bot	18384
hugely	27564
##powered	27267
difficulty	7669
royalty	16664
lasted	6354
booked	17414
angelina	23847
faber	21720
specifies	27171
bracket	21605
clash	13249
insider	25297
cavern	16679
candy	9485
twice	3807
##p	2361
##事	30277
mushroom	18565
##athic	20972
colonists	15526
harcourt	22714
チ	1710
loft	19459
manipulated	20063
my	2026
gallon	25234
gazing	16448
fifteen	5417
ᵇ	1497
hokkaido	20826
onset	14447
eats	20323
watts	11042
hurrying	27951
modernized	27140
##正	30414
1852	8784
josie	15293
##llon	22179
208	18512
reproduce	21376
erupted	12591
patti	22732
mhz	11413
ample	20851
beg	11693
##oh	11631
flashback	21907
catastrophe	25539
galley	27124
iowa	5947
##uve	22909
distribution	4353
preach	25250
resin	24604
##†	30061
internally	16058
localities	19664
carolyn	15611
electrically	29103
dramas	16547
ʐ	1136
found	2179
[unused137]	142
[unused869]	874
starter	11753
alma	11346
cambridge	4729
tents	17732
nm	13221
subconscious	27952
lie	4682
tomb	8136
wwii	25755
け	1654
hurled	24025
taliban	16597
change	2689
challenges	7860
hike	21857
tingle	25792
occurrences	27247
##lynn	27610
timeless	27768
[unused130]	135
wince	29585
reliable	10539
athletic	5188
twitched	16767
eternity	12715
reviewers	15814
##wee	28394
richest	18429
taylor	4202
regulars	24945
durham	9296
limb	15291
albion	13392
boarded	17383
issn	23486
democrat	7672
hungarian	5588
pensions	22024
comforting	16334
bending	14457
superseded	19886
[unused709]	714
##andra	29159
##vna	29207
nazi	6394
youths	19634
[unused948]	953
ɪ	1119
answers	6998
cone	13171
perry	6890
[unused866]	871
##ₖ	30094
desert	5532
none	3904
pussy	22418
interview	4357
malcolm	8861
seize	15126
sue	9790
patel	20455
む	1679
commanded	6311
computers	7588
wilcox	23926
dependency	24394
##wt	26677
21st	7398
corresponding	7978
majesty	9995
[unused264]	269
choir	6596
laden	14887
snapping	15790
##vie	13469
maru	26280
pinning	22866
thankful	18836
poison	9947
##oes	22504
phelps	20475
cat	4937
outbreak	8293
boring	11771
##ght	13900
flexed	24244
dissatisfied	25956
##hir	11961
drenched	25265
informally	21858
##position	26994
pristine	27375
kyushu	25885
toxicity	22423
occupy	11494
organs	11595
##nza	16786
sensory	16792
##yra	19563
conservatory	11879
sikh	17246
conor	20545
slow	4030
##dder	20791
##oris	21239
packets	23730
sous	27411
farther	8736
nissan	16509
orchards	22976
basque	13915
raceway	23018
contrast	5688
ら	1685
平	1839
##anor	27869
##nesian	20281
frontiers	28750
juris	27551
anal	20302
distrust	29245
freshly	20229
##ki	3211
sphinx	27311
braves	13980
refurbishment	24478
##rrard	29599
nike	18368
broadcasters	18706
il	6335
chopin	25479
##tten	25970
[unused352]	357
sachs	22818
141	15471
halftime	22589
sharpened	26694
smiles	8451
lacking	11158
##ther	12399
bounty	17284
caller	20587
indus	27746
vr	27830
goethe	23173
smash	15132
288	24841
transmitted	11860
patients	5022
advocating	20324
##gist	24063
##yon	14001
salford	23001
##12	12521
tito	20712
histories	15215
gaga	23332
ᄌ	1464
ς	1172
prevailing	19283
aggregation	28041
sleeper	24372
attracting	15411
##hunter	25629
##ང	29963
superb	21688
appeals	9023
infections	15245
kayla	26491
medal	3101
champagne	12327
settlement	4093
##tai	15444
bandits	19088
tracks	3162
greater	3618
##ange	22043
nuclei	23767
##月	30398
quad	17718
device	5080
outline	12685
fridge	16716
judicial	8268
345	23785
[unused171]	176
[unused850]	855
usually	2788
ʸ	1144
healed	15027
1743	25615
licking	17033
##ater	24932
poetic	13805
squeezed	7757
screenplay	9000
circulating	22458
[unused454]	459
##19	16147
targeted	9416
editing	9260
shelf	11142
piercing	14628
paste	19351
л	1190
##lves	20899
##rts	21217
execution	7781
canucks	26177
##vard	25911
28	2654
[unused217]	222
##nation	9323
##ner	3678
handkerchief	23975
corpse	11547
adam	4205
sportsman	27168
tv	2694
pregnancy	10032
paul	2703
##ury	13098
ヘ	1721
tighter	12347
mono	18847
warn	11582
1660	17954
##ui	10179
gravel	11127
widespread	6923
##ond	15422
seizure	18634
colony	5701
stunts	28465
hometown	9627
atari	18978
influence	3747
tunnels	10633
##meister	28824
out	2041
日	1864
saskatchewan	10068
sovereignty	12601
##cc	9468
precedent	20056
[unused52]	53
mortimer	17416
marrying	13516
ء	1269
peter	2848
steep	9561
[unused337]	342
##orf	16347
prototypes	19599
insists	16818
##pro	21572
interesting	5875
kind	2785
##em	6633
manned	15371
rolf	23381
林	1881
λ	1165
##kken	24192
flourishing	29571
ceo	5766
provinces	6941
scream	6978
cinder	29399
erase	22505
unbelievable	23653
night	2305
hunters	9624
proceed	10838
escorts	24877
prized	25695
choking	18329
##अ	29847
terrorist	9452
##orno	26295
##cting	11873
aisles	25442
[unused381]	386
laborers	23428
disclosure	19380
bearing	7682
gained	4227
delgado	26532
pollock	25218
vicky	22845
140	8574
expectations	10908
expanse	22944
batter	23801
##ᵖ	30040
encounters	11340
lawson	14577
nut	17490
##eyer	20211
ferreira	26135
dream	3959
##3d	29097
##oshi	24303
biased	25352
right	2157
saved	5552
aquino	24183
##tropical	25528
novgorod	24338
notebook	14960
karlsruhe	26660
arthur	4300
throbbing	17061
##vers	14028
amin	24432
score	3556
##mx	22984
highlands	11784
fancy	11281
soap	7815
momma	23603
##oir	21165
janata	20308
anthony	4938
obsessed	15896
crossbow	28692
kay	10905
longtime	11155
malay	12605
socrates	26772
careful	6176
delicate	10059
wrestlemania	28063
slovenia	10307
attended	3230
concession	16427
211	19235
wandered	13289
##illy	20577
comrade	27661
kidnap	22590
149	17332
tierney	26198
bakery	18112
tyrol	27193
##low	8261
##µ	29659
1963	3699
##tore	19277
##most	11800
boasts	21979
##anto	21634
human	2529
discuss	6848
tinted	25577
khorasan	23225
後	1846
astronomy	12799
mummy	22788
石	1922
necks	26082
hoffmann	24437
lehigh	23241
⁺	1544
##force	14821
##minated	26972
gmina	7061
kowalski	28874
probable	15596
subdivisions	22095
##typical	27086
jenkins	11098
##hman	13890
##km	22287
kramer	16322
viz	26619
deported	17929
talks	7566
scripture	18919
ferris	23202
tree	3392
hardin	27522
orphan	18211
binary	12441
liberation	7931
agents	6074
flopped	24723
tactical	8608
banners	23562
communicating	20888
victory	3377
streaming	11058
##ouse	15441
caucasian	23368
secretly	10082
cholera	25916
underway	14128
[unused691]	696
teenagers	12908
breed	8843
birthplace	14508
fiction	4349
tramway	17050
illustrate	19141
journey	4990
volley	28073
##sw	26760
##mur	20136
ɛ	1115
[unused687]	692
ח	1248
ripe	22503
standardized	16367
bout	10094
ingram	23231
portions	8810
⊗	1613
relentless	21660
admitting	17927
malabar	28785
[unused933]	938
two	2048
##eld	14273
を	1690
conventions	12472
invented	8826
restraining	28285
petit	17268
[unused37]	38
tilted	9939
cairo	11096
participated	4194
cork	8513
canadians	16485
##taro	28160
[unused547]	552
accuracy	10640
hazy	26710
##born	10280
##mmel	29033
dye	18554
nietzsche	28898
[unused157]	162
##sam	21559
##ographer	26145
##dial	27184
choose	5454
fully	3929
reduced	4359
moldova	16772
scowl	19981
##gau	20420
shapes	10466
162	17832
streaked	21276
gracie	19005
##adi	17190
screwing	29082
##都	30487
israel	3956
##heim	8049
130	7558
##gia	10440
enormous	8216
⟨	1629
[unused180]	185
98	5818
##ℝ	30107
moons	23377
tabitha	21581
##শ	29910
rip	10973
##hh	23644
##osi	20049
difference	4489
##mer	5017
pose	13382
accommodate	8752
overturned	17068
prevention	9740
##tical	14656
surpassing	27097
cocktail	18901
leroy	19103
[unused598]	603
producers	6443
##ba	3676
wei	11417
bypass	11826
disadvantage	20502
1918	4271
om	18168
civic	8388
nape	23634
yamamoto	28318
ethnicity	18240
color	3609
treat	7438
monique	26194
fluttering	25001
redundant	21707
##ァ	30218
##ais	15593
##stein	8602
##face	12172
app	10439
slain	19668
sweaty	19889
join	3693
ribs	10335
singh	5960
vince	12159
irvine	16272
disagree	21090
公	1772
～	1995
tentative	19943
wb	25610
ernest	8471
[unused156]	161
valuable	7070
lil	13451
malibu	29047
fledged	26712
##buro	23670
オ	1699
lease	10084
gunshot	22077
beijing	7211
qu	24209
##oven	25592
shores	13312
tackles	10455
squid	26852
breakup	19010
piccolo	29368
[unused898]	903
photographs	7008
arrangement	6512
ನ	1400
lilly	14765
clasped	16763
wilton	26407
mahal	27913
mas	16137
apart	4237
##bach	7693
正	1888
attributes	12332
injected	19737
pump	10216
gore	13638
nakamura	23981
studied	3273
westfield	26584
jones	3557
##沢	30424
engraver	27771
pilgrims	17992
##rica	14735
humiliating	28284
##kling	20260
aleppo	22973
sutra	26567
poster	13082
theology	8006
grasped	15517
compassionate	29353
lagos	16738
national	2120
gnome	25781
cardinal	7185
##ence	10127
congressman	12295
[unused103]	108
supporters	6793
##quent	15417
##ds	5104
inch	4960
proposes	17146
kepler	28219
##ivity	7730
##ight	18743
realize	5382
addresses	11596
##bs	5910
territory	3700
jewel	13713
greyhound	21220
##ase	11022
gustavo	24801
eligible	7792
inhaled	15938
220	10545
holding	3173
[unused837]	842
lion	7006
hazardous	17760
greenville	20967
contend	27481
livingstone	27656
272	24231
##wani	29092
developer	9722
obviously	5525
murmured	7152
apologetic	29352
##utz	20267
commuter	14334
groningen	29070
fiji	11464
tie	5495
exhibited	8176
havoc	22156
tunisian	22946
##opped	27288
##gra	17643
academies	20994
1869	7845
[unused304]	309
stevie	17458
supplemented	20585
##rik	15564
proceeded	8979
paws	24392
wishes	8996
blogs	23012
private	2797
bedfordshire	28430
yoga	13272
cancer	4456
##unce	17457
cracks	15288
acc	16222
honest	7481
executing	23448
figure	3275
playful	18378
##phic	17926
##bush	22427
[unused666]	671
agatha	23863
este	28517
holm	28925
encore	19493
clarence	11805
##rca	18992
euclidean	25826
shifters	21537
fond	13545
##有	30399
##logue	24277
recording	3405
expresses	16783
destination	7688
catalonia	16711
##sk	6711
##ch	2818
inhuman	29582
unified	10562
chateau	11874
powerless	25192
##hner	28989
##utter	26878
##lev	20414
roots	6147
johnston	10773
163	17867
##rates	20370
cher	24188
gwen	11697
montagu	26241
##eric	22420
limerick	15679
specific	3563
syndrome	8715
##rti	28228
ে	1381
dil	29454
hoover	17443
charters	23010
陳	1972
rouse	27384
northernmost	22037
##oat	16503
##cter	21162
emptied	21764
labeling	28847
[unused912]	917
mosque	8806
curl	15390
extending	8402
心	1849
##oth	14573
gee	20277
##kia	21128
authenticity	21452
##fire	10273
eyelids	16544
wood	3536
seismic	22630
bids	20723
ethics	9615
grin	5861
##vian	18073
gilded	23880
mediterranean	7095
dir	16101
applicable	12711
tanks	7286
notable	3862
##ivated	21967
fires	8769
chef	10026
random	6721
ད	1428
tendency	11765
too	2205
psyche	25774
##held	24850
bribery	27748
prominently	14500
##ua	6692
##車	30480
peck	18082
aspiring	22344
##combe	14149
turing	28639
hotel	3309
sharp	4629
mrna	28848
─	1615
1863	6899
rifle	5883
guam	16162
talbot	14838
thornton	14630
analyst	12941
prepare	7374
directions	7826
emblem	16199
##bility	8553
ein	16417
as	2004
delayed	8394
meal	7954
##eous	14769
countess	11716
forbade	27315
[unused616]	621
##fy	12031
##rc	11890
##graphs	27341
warmed	17336
legislators	22680
##ign	23773
aggregator	24089
continents	17846
##mot	18938
##teacher	24741
[unused302]	307
dans	18033
waist	5808
##ab	7875
emirates	14041
collaborated	8678
appeal	5574
mutations	14494
promote	5326
[unused468]	473
タ	1709
ethical	12962
edith	13257
franz	8965
ca	6187
##ique	7413
report	3189
greeted	11188
accused	5496
##oo	9541
guthrie	19952
industrialist	21691
indira	28232
lowers	24950
groaning	24781
assault	6101
intrusion	24554
405	23988
lucknow	23571
chasing	11777
distinctions	25995
hyderabad	13624
[unused901]	906
resort	7001
professions	22797
nodded	3368
1832	10212
patrolling	24248
impatiently	19951
##mbre	19908
##inia	23309
unicef	29073
ɡ	1116
poem	5961
##oom	17650
##pine	19265
chemistry	6370
uruguayan	23464
serialized	27289
disposed	21866
collin	22180
reuben	17294
[unused155]	160
communal	15029
assassination	10102
drivers	6853
apex	13450
##ub	12083
##sse	11393
cautiously	15151
[unused419]	424
shed	8328
macau	16878
adjustment	19037
foraging	26912
threatens	17016
imposing	16625
##lled	11001
tone	4309
thrown	6908
consolidate	24939
implant	27159
sudan	10411
plaques	28487
companion	7452
ponce	21085
##kian	28545
bulldog	28628
legislation	6094
vocational	13099
tablets	17596
superhuman	27061
vale	10380
bursts	19239
bomb	5968
announcing	13856
bert	14324
250	5539
iceland	10399
##git	23806
1942	3758
carmel	19443
benz	17770
regained	11842
##am	3286
milos	26038
stride	18045
modelling	19518
ᵉ	1499
kits	18628
discourage	28085
stinging	22748
narrowed	8061
goodman	14514
[unused622]	627
entourage	25342
thriving	20319
trailed	11145
cartel	21680
##erie	17378
ages	5535
commit	10797
backseat	19978
narrower	22546
centres	8941
attention	3086
##mi	4328
merger	7660
##ru	6820
medium	5396
##kal	12902
##umatic	25360
suspicions	17817
##ieving	25587
##ount	21723
adventures	7357
orbital	13943
candidate	4018
主	1747
highways	10292
##lty	24228
##天	30337
henrik	18745
##kat	24498
demonstrations	13616
reduction	7312
đ	1102
employee	7904
fences	21549
studies	2913
viral	13434
pace	6393
54th	29570
stands	4832
vibrating	24987
regina	12512
specification	12827
composite	12490
veronica	13133
sarcastic	22473
violence	4808
honneur	28197
##fk	24316
candidacy	17057
sabrina	21876
##sper	17668
bush	5747
reflected	7686
##bank	9299
skiing	12701
weighing	15243
reelection	17648
##rh	25032
classmates	19846
hesitate	16390
songwriters	20602
ammunition	9290
prototype	8773
businesses	5661
conditioned	22442
##wi	9148
dismissing	28913
[unused260]	265
[unused710]	715
abbot	11428
治	1900
lia	22393
strange	4326
##古	30315
##itha	26054
steal	8954
oliver	6291
tracy	10555
subterranean	28811
undeveloped	29341
keith	6766
tiffany	14381
randy	9744
computational	15078
gupta	20512
sima	26769
[unused599]	604
obstacles	15314
furnished	19851
[unused490]	495
ia	24264
appointments	14651
##ರ	29937
lahore	15036
rouen	27030
##kill	15872
sylvie	26009
plantations	14979
catalina	22326
poses	22382
twitter	10474
breaks	7807
antiques	27763
persistence	28297
##ana	5162
knob	16859
zee	23727
supermarkets	26676
海	1902
crotch	28629
geologic	22125
nyc	16392
heartbeat	12251
bisexual	22437
gasps	23813
wrath	14532
belinda	24574
drawn	4567
wiped	8342
marshal	8610
ᅯ	1479
han	7658
methodist	8938
burke	9894
1850s	16488
dale	8512
13	2410
tavern	13090
##lund	18028
schumacher	22253
chemotherapy	27144
1849	9037
weddings	20429
rainbow	10098
neglect	19046
alexia	21683
enables	12939
montane	21704
##ₘ	30096
233	22115
debra	28762
youth	3360
prejudice	18024
homme	26574
##tically	25084
straps	19702
##utive	28546
##sio	20763
[unused438]	443
goran	28356
##lard	20822
autobiographical	18534
billions	25501
[unused485]	490
##ᄅ	29994
carbonate	26427
.	1012
town	2237
fuzzy	18001
chuckled	10252
mute	20101
1648	22533
##ator	8844
н	1192
چ	1303
application	4646
traced	9551
দ	1364
ami	26445
##>	29631
##ir	4313
roaming	24430
supplements	25654
billion	4551
[unused977]	982
stormy	24166
combine	11506
cinemas	19039
surveyor	17169
vaguely	15221
platforms	7248
wet	4954
deserts	28858
wexford	23121
[unused934]	939
catcher	13795
##omy	16940
##esa	22447
4000	20143
healer	19783
guts	18453
forewings	13211
##tees	28313
sr	5034
montgomery	8482
₁	1548
afro	17694
chests	28717
complained	10865
##if	10128
[unused257]	262
delle	24121
1794	13199
president	2343
mischievous	25723
1823	12522
conditioning	14372
hire	10887
pinch	18392
flushed	12953
queensland	5322
##lets	13461
hiatus	14221
emitted	22627
loans	10940
##「	30167
##lles	20434
adjoining	13562
sculptures	10801
relocation	18344
jenna	13504
powerhouse	24006
##gible	18507
##:	29627
consonant	18265
##pies	13046
cookies	16324
consist	8676
hesitated	9369
##ech	15937
baptized	19775
ι	1163
announcer	14073
##oc	10085
ಾ	1402
##entes	26933
##wise	14244
[unused160]	165
scripts	14546
fukuoka	26998
signage	29404
##უ	29990
novel	3117
[unused765]	770
cho	16480
wembley	16538
slices	25609
reducing	8161
##pani	26569
##ว	29955
##春	30393
##spar	27694
##示	30449
battles	7465
abortion	11324
coastal	5780
vote	3789
##par	19362
bladed	27402
士	1807
book	2338
##tary	18219
##ckle	19250
[unused91]	92
shale	18488
##iy	28008
facial	13268
##hall	9892
holds	4324
salle	18005
quickly	2855
disturbed	12491
contribute	9002
[unused711]	716
latitude	15250
damages	12394
ceiling	5894
ringo	25589
brant	29182
[unused194]	199
experiences	6322
sway	17812
##tya	21426
peer	8152
inter	6970
noting	9073
unaware	11499
pursuit	8463
strode	11885
residue	21755
poverty	5635
bearings	21714
##linson	25051
summarized	22539
##cytes	27321
mika	27857
shards	23327
conversations	11450
introductions	25795
inventor	12235
sonic	12728
paperback	13611
pest	20739
july	2251
jagger	25827
snatched	14177
flop	28583
##王	30435
feeling	3110
affect	7461
quasi	17982
boasted	23390
bile	23974
eki	23174
branches	5628
innovation	8144
##iza	21335
indication	12407
mundane	24684
₊	1557
initially	3322
sentimental	23069
1753	23810
##mbled	23931
europa	12124
lydia	14076
worshipped	22876
dining	7759
smaller	3760
[unused857]	862
margaret	5545
stabbing	21690
##emia	17577
howling	22298
costing	22173
mixer	23228
harmony	9396
hideous	22293
##ł	18818
nba	6452
45th	24634
acquired	3734
fries	22201
上	1742
##nnis	27803
cared	8725
##’	30056
##nham	20465
prologue	18877
[unused686]	691
islamist	27256
##ː	23432
rage	7385
tuberculosis	15877
forget	5293
##aud	19513
hartley	20955
balfour	27560
##lizer	28863
fill	6039
##fish	7529
essendon	25149
ট	1359
curb	13730
collaborative	12317
america	2637
uniting	26112
artificial	7976
attribute	17961
give	2507
booklet	19271
lovely	8403
smooth	5744
##of	11253
syndication	26973
craters	27561
confidently	28415
tempo	13657
if	2065
leaders	4177
anomaly	28685
famously	18172
genealogy	26684
##ท	29948
pictorial	28304
eyebrows	8407
##bber	29325
compliant	24577
tribes	6946
tornado	11352
paired	12739
casual	10017
bombing	8647
hd	10751
twitching	25402
wires	14666
dove	10855
bishopric	20664
##ji	4478
barge	19398
standalone	26609
##bri	23736
niagara	15473
everybody	7955
gran	12604
##eve	18697
wept	24966
looked	2246
[unused530]	535
apps	18726
memo	24443
hu	15876
modifying	29226
designate	24414
simple	3722
suitable	7218
travelled	7837
kidd	25358
threaded	26583
ik	20912
explain	4863
portal	9445
reminding	15906
ignacio	22988
milwaukee	9184
weasel	29268
louvre	25110
suppress	16081
##ח	29794
muttering	22581
1642	24061
viper	17947
##ular	7934
gradual	16612
hudson	6842
tian	23401
##ssa	11488
toned	27604
porto	13809
harlan	24276
ʂ	1129
preservation	8347
mountains	4020
##pit	23270
##dote	23681
ancestors	10748
kelley	19543
##gren	13565
tom	3419
commissioner	5849
lizard	15450
municipalities	7602
elliptic	29413
maintaining	8498
consideration	9584
glitter	27566
swansea	16085
terri	26568
walkway	19467
dissemination	28170
##iv	12848
##zia	12871
reorganisation	24934
netherlands	4549
tripped	21129
1922	4798
sons	4124
license	6105
##war	9028
##ead	13775
coach	2873
bloomington	26372
ramirez	15206
minogue	27736
grouping	19765
##島	30359
instrumental	6150
restless	15035
louisa	15731
chaplain	14011
drake	7867
adapting	25357
causal	28102
carey	11782
religions	11822
##葉	30469
torture	8639
caught	3236
bumped	19030
frank	3581
radicals	23618
covert	19813
##ɴ	29690
restraint	19355
##₹	30104
description	6412
dong	11947
psychedelic	18147
presenter	10044
jaws	16113
better	2488
plunged	16687
rodeo	18936
son	2365
frantically	16460
organised	7362
bitch	7743
seldom	15839
stormed	16201
procurement	21423
fists	10006
##in	2378
prospect	9824
mcc	23680
iihf	26904
elegance	27745
subsidy	28768
³	1083
format	4289
1612	29186
##fed	25031
[unused861]	866
1926	4881
imprisonment	10219
##ore	5686
robbins	18091
convent	10664
instruments	5693
1974	3326
ᆯ	1486
##vez	26132
get	2131
passages	13768
hutchinson	17165
deliveries	23534
##rdan	26992
panama	8515
visibility	16476
cochran	28506
banjo	16698
interviews	7636
[unused62]	63
memories	5758
mendoza	18021
notorious	12536
abandoning	19816
maximus	21692
lap	5001
compass	16681
302	22060
[unused960]	965
##bourne	11634
vine	15351
##щ	29754
germans	7074
generator	13103
antwerp	14003
movements	5750
1650	21875
glossy	19504
p	1052
##agawa	20812
marsden	29558
huntington	16364
eureka	21142
solemnly	26294
villagers	11904
##ӏ	29765
##ed	2098
[unused284]	289
pg	18720
chico	22136
azerbaijani	18325
foul	12487
vivian	13801
##un	4609
statues	11342
barony	19365
steaming	19986
1718	26995
##iro	9711
##drik	28730
scientists	6529
sheath	21867
##int	18447
serious	3809
##yte	17250
##onne	18256
panic	6634
糹	1934
madeleine	19324
comfortably	18579
ii	2462
grimaced	19014
headed	3753
1868	7582
plans	3488
exported	15612
rite	14034
##tip	25101
phase	4403
insights	20062
##ℓ	30105
grading	26886
##atal	27815
jersey	3933
upside	14961
sebastien	28328
meeting	3116
katy	17870
##yde	18124
##hd	14945
[unused462]	467
##valent	24879
##白	30441
locality	10246
broadway	5934
antagonist	17379
hostile	10420
cradled	23774
##谷	30477
discontent	27648
commits	27791
uhf	20131
rhythms	17900
[unused602]	607
##ogo	22844
confident	9657
##ole	9890
temperature	4860
persecution	14522
sioux	16615
##ɣ	29683
campbell	6063
flotilla	17150
##l	2140
surgeon	9431
offenders	19591
##eu	13765
cracking	15729
niece	12286
currents	14731
tin	9543
[unused111]	116
##cen	27524
ħ	1103
galveston	26630
etymology	26803
300	3998
##uen	24997
[unused814]	819
dona	24260
superliga	25922
##lu	7630
darryl	22821
resolving	29304
terrain	9291
implementing	14972
savoy	16394
poorer	27196
signatures	16442
functionality	15380
takahashi	25585
syed	19740
fairbanks	24502
autumn	7114
slacks	27786
bowing	26690
1646	28783
1877	7557
sustained	8760
craven	21232
##able	3085
##light	7138
restoring	16487
morals	25288
##hawks	16043
engravings	28611
retro	22307
merchandise	16359
##girl	15239
##ady	18632
##gum	22850
racers	25791
whereby	13557
106	10114
##claim	25154
##!	29612
archives	8264
##zumi	28114
michel	8709
somme	25158
flanking	24958
##enia	19825
resurrection	15218
1744	25846
commence	22825
hires	28208
brandy	17951
##ial	4818
##com	9006
clerk	7805
daytona	18226
[unused571]	576
##•	30063
susanna	26681
##yard	14132
##cian	14483
##jk	15992
cl	18856
towards	2875
highlanders	22672
ratios	21879
⇒	1591
sized	7451
temps	29023
militant	16830
pulled	2766
had	2018
##yk	15922
jockey	13989
##rea	16416
bald	13852
amounts	8310
barns	25684
repertory	21099
afraid	4452
$	1002
brodie	27379
thought	2245
##ড	29896
powers	4204
##gawa	21188
flynn	13259
[unused202]	207
kashmir	13329
alteration	26014
[unused367]	372
features	2838
representing	5052
northwest	4514
badge	10780
##dong	17679
frequencies	13139
##enity	20693
staggering	26233
then	2059
apical	29197
chilean	12091
disorders	10840
augsburg	24362
huffington	26149
##আ	29884
christoph	21428
helping	5094
onions	24444
practice	3218
[unused738]	743
swan	10677
vintage	13528
mis	28616
夫	1813
daniel	3817
##inate	14776
snaps	20057
mischief	25166
arabs	14560
cubic	11919
116	12904
descriptions	13271
radiated	23000
akira	21616
empowered	26480
##ɛ	29275
magma	28933
transforms	21743
airlift	20019
##rner	18703
grouped	15131
snails	13482
tyrone	18770
taiwanese	16539
impression	8605
##frame	15643
##uted	12926
elephants	16825
upstairs	8721
larkin	25570
florida	3516
##cased	28969
scottish	4104
ka	10556
grandfather	5615
mineral	9754
歌	1886
##kshi	27488
fraser	9443
[unused963]	968
##bay	15907
economies	18730
differed	19541
mans	16042
eddy	16645
grandma	13055
professionally	12145
##tive	6024
##uh	27225
frame	4853
marjorie	21562
verified	20119
emotions	6699
efficiency	8122
皇	1917
##org	21759
##bbing	23200
mab	26661
##adia	25205
[unused777]	782
##heard	26362
mx	25630
purcell	26429
ʊ	1132
tip	5955
pitt	15091
swords	10689
jerry	6128
pillars	13766
leaking	24325
hinted	21795
confederate	8055
##icular	21412
payton	28666
dangerously	20754
haute	18535
##ulous	16203
bristol	7067
##bara	20709
offers	4107
funk	11962
sharks	12004
alps	13698
##lib	29521
ambient	17093
##dee	26095
instructed	10290
[unused980]	985
##nu	11231
##lary	28221
manchester	5087
tee	17170
zurich	10204
quarterback	9074
regard	7634
spelling	11379
gomez	12791
mikhail	11318
mushrooms	23827
aristotle	17484
##ris	6935
##yre	16363
shrill	28349
minnesota	5135
compliment	19394
indigo	22472
slater	17916
ph	6887
[unused394]	399
facts	8866
chin	5413
gladys	22386
strips	12970
shoes	6007
context	6123
assist	6509
##mering	27851
caring	11922
##gi	5856
##nate	12556
vague	13727
usl	22448
##ucible	21104
season	2161
hidden	5023
##cera	19357
potato	14557
clearing	8430
##tively	25499
##rard	25561
commentary	8570
appearing	6037
digitally	18397
graveyard	16685
salvatore	17485
aristocracy	22706
correspond	17254
訁	1949
creole	21414
[unused26]	27
##ocene	25793
##cta	25572
ᄀ	1455
##ף	29806
##eus	10600
mounted	5614
maclean	22528
##rish	18774
chop	24494
298	27240
##ctuated	25638
ft	3027
##章	30458
pens	25636
##biology	21685
cassie	8869
exiting	22371
forged	16158
devon	7614
##essed	23656
[unused236]	241
1834	10700
piss	18138
chen	8802
##win	10105
unicorn	21830
friendship	6860
quay	21048
##rella	21835
theatrical	8900
sweetness	23210
russia	3607
grown	4961
##rians	23543
mcguire	23872
montenegrin	24099
footprint	24319
sunken	23470
##љ	29762
[unused871]	876
##chman	19944
attic	14832
prisons	15996
1908	5316
purification	28406
##生	30436
##nding	15683
narrow	4867
downloads	22956
demonic	23170
auschwitz	24363
##iner	26455
vance	16672
##¹	27904
landmark	8637
530	23523
handled	8971
38	4229
hissed	11402
##band	12733
routines	23964
hickory	28158
astrid	27376
maroon	22222
weaponry	22711
##ados	28118
walker	5232
bengals	23227
invincible	25018
wavelengths	29263
##hell	18223
question	3160
confederates	24627
deemed	8357
semantics	28081
sergio	13983
tenderness	24605
hindus	18221
morphology	19476
brasil	21133
##テ	30239
wan	14071
##how	14406
##atics	17592
[unused359]	364
settles	27221
plasma	12123
scenery	17363
##gated	11644
taft	19911
man	2158
nominate	23388
examiner	19684
wanted	2359
celine	24550
mausoleum	19049
##ης	29155
greatest	4602
differs	12980
sort	4066
freighter	27945
aaa	13360
cascade	16690
db	16962
zero	5717
1630	24994
##স	29912
christy	21550
vitamin	17663
conversions	25834
benfica	26542
lanes	10914
catchment	22865
dominion	13738
##iidae	15648
ao	20118
##nta	12380
positively	13567
1768	19793
argent	23157
elite	7069
##around	24490
lest	26693
climate	4785
##rth	15265
evans	6473
orchid	15573
##ᅦ	30009
##∇	30123
##grounds	28951
renowned	8228
188	19121
every	2296
[unused67]	68
compact	9233
a	1037
hack	20578
cooke	16546
##光	30296
‐	1513
##oy	6977
∩	1604
##bbs	17226
pictures	4620
##eira	21302
instances	12107
carlton	12989
##erton	20995
##hill	7100
violin	6710
toro	23790
decidedly	27873
caldwell	16589
grafton	28680
bloc	15984
##গ	29891
kenneth	8856
generate	9699
##sti	16643
dowry	29603
alton	26374
brings	7545
gentleman	10170
##ops	11923
peggy	14911
abbott	14455
vijay	17027
westbound	24717
sponsored	6485
##∩	30131
##pic	24330
bros	10243
##fight	20450
turnover	20991
monstrous	21668
glare	10982
stimulate	23216
##hein	26496
contractor	13666
mania	29310
hispanic	6696
scramble	25740
[unused886]	891
rothschild	19712
hi	7632
paddington	26318
taped	19374
nottinghamshire	20126
##bson	27355
##門	30494
inland	9514
lincoln	5367
swung	7671
newport	9464
wireless	9949
unpleasant	16010
[unused595]	600
royce	14789
cain	11557
##mps	25370
horrific	23512
panorama	23652
[unused875]	880
##士	30333
propeller	15692
##jar	16084
zeke	18270
##gee	18372
giorgio	17697
romney	19615
broker	20138
marxism	27255
imaginative	28575
misery	14624
##xley	20959
##dalen	26414
##star	14117
rental	12635
dissipated	22572
endorsement	20380
intrinsic	23807
hana	26048
futuristic	28971
ah	6289
##本	30402
dripping	14309
region	2555
niall	21889
sustaining	22663
livestock	11468
##lian	15204
##enham	23580
reigns	23481
##atter	20097
風	1977
##moto	15319
46th	27990
rover	13631
##mic	7712
securely	28999
incidents	10444
bahia	22474
totaled	23596
स	1338
mom	3566
awaiting	15497
surged	18852
##feng	24383
travelers	15183
visible	5710
vo	29536
accreditation	14893
editions	6572
contraction	21963
##roup	22107
polish	3907
intimate	10305
[unused826]	831
nectar	24816
##oue	27872
##¿	29666
##治	30426
₇	1554
norse	15342
platoon	13799
gazed	11114
lions	7212
fitzpatrick	26249
initials	20381
##‚	30057
distances	12103
1779	17616
descended	9287
direct	3622
rematch	18229
gottfried	26142
munchen	25802
[unused883]	888
disbanded	8532
directional	20396
patterned	25336
vu	24728
##xed	19068
trout	13452
odor	19255
昭	1868
addison	18403
hirsch	28127
butter	12136
persuasion	27577
##alo	23067
demons	7942
musicians	5389
agrees	10217
fairly	7199
##ₜ	30099
disgusted	17733
gifted	12785
virus	7865
fascism	23779
play	2377
altar	9216
clasp	23465
curriculum	8882
chesterfield	22699
[unused704]	709
cadets	15724
fourteenth	15276
warped	25618
no	2053
purple	6379
1805	13126
apocalypse	16976
garner	18661
273	25371
1993	2857
##isation	6648
tre	29461
posing	20540
pbs	13683
meridian	17984
[unused482]	487
tall	4206
##sy	6508
326	28188
he	2002
diverse	7578
soils	13622
##mpt	27718
competes	14190
palermo	18705
deeper	6748
room	2282
environmentally	25262
##achal	24409
towering	20314
vimes	28482
originals	23728
installed	5361
murals	19016
tilting	21788
fluids	20989
##river	24352
host	3677
rooftop	23308
communications	4806
processor	13151
administratively	23710
raven	10000
storm	4040
slash	18296
[unused630]	635
puts	8509
detection	10788
hurley	25124
##ick	6799
ate	8823
argentine	8511
coated	15026
disrupt	23217
slated	18517
hiroshi	26882
wasn	2347
illegal	6206
##ল	29909
##sel	11246
occupants	18837
##街	30472
1651	29077
jimi	27624
turin	13667
ff	21461
slide	7358
billing	25640
wherein	16726
##nent	21576
##›	30068
tub	14366
##ю	29757
[unused427]	432
grips	24758
altering	22552
##lift	18412
##ance	6651
[unused868]	873
##aux	13754
tommy	6838
fault	6346
monsoon	19183
pre	3653
masovian	23703
##ump	24237
glenn	9465
shang	29382
##yl	8516
asshole	22052
##rco	29566
tasting	18767
envisioned	18035
inexpensive	23766
1839	10011
kunst	28145
gears	19456
nr	17212
exports	14338
customers	6304
[unused29]	30
##aran	20486
##dora	24562
mn	24098
march	2233
definitive	15764
bargaining	21990
vista	13005
necessitated	29611
[unused800]	805
blended	19803
##hua	14691
eclipse	13232
pennsylvania	3552
##ently	28198
blackpool	17444
immaculate	19532
conservatoire	29233
##.	29625
organism	15923
##ditional	27064
das	8695
atletico	16132
[unused507]	512
blades	10491
##national	25434
globe	7595
え	1649
##行	30471
doncaster	18895
organizer	19012
ɫ	1120
advance	5083
bedrooms	18390
grover	25242
##¤	29647
##puri	24661
demetrius	28367
harry	4302
##忠	30378
happily	11361
tower	3578
225	14993
##yuki	19663
##jer	20009
地	1802
adopt	11092
jurisdictions	17370
##lim	17960
confederacy	18179
flutes	28453
ও	1352
tonight	3892
##ues	15808
[unused463]	468
native	3128
##tie	9515
scratches	25980
₆	1553
mantle	16019
bharatiya	24243
##nitz	22792
igor	14661
##urse	28393
reuters	26665
aquarium	18257
##ious	6313
missing	4394
##ses	8583
couples	6062
retiring	9150
##ou	7140
harlem	14864
procedures	8853
##matic	12644
declined	6430
[unused631]	636
rocky	6857
agenda	11376
eggs	6763
eroded	23300
370	16444
assaults	22664
grille	26192
lyricist	19489
partial	7704
sophie	8234
primaries	27419
##enes	28553
websites	11744
cunning	23626
sniffing	27646
chords	18495
##chan	14856
bled	23919
##standing	24911
chicago	3190
owed	12232
[unused672]	677
auckland	8666
##kis	14270
[unused513]	518
##ith	8939
jericho	17309
gregorian	25847
judo	19083
##akh	27573
announcements	25674
favourable	18731
screenings	25437
doom	12677
##isha	24032
snuck	24492
keenan	26334
##meral	28990
editor	3559
lineman	24062
249	23628
middlesbrough	21655
ɯ	1122
m³	14241
##bria	21556
1604	28754
concordia	24982
660	20982
domed	29208
arises	18653
travels	7930
##gata	26589
specializing	14055
loosened	22456
andrea	8657
##house	4580
伊	1762
par	11968
muzzle	17750
christensen	24189
binding	8031
史	1790
hard	2524
##zow	22670
messengers	28938
mechanically	27846
thorough	16030
peshawar	28777
dogg	28844
xii	14371
taxa	23726
product	4031
runes	29161
conductor	7589
jeremiah	17526
##ssar	25556
rains	15811
##uance	26620
##ka	2912
##tric	12412
riding	5559
lisa	7059
gael	28151
##ci	6895
compensate	19079
thrilled	16082
##»	29663
##dam	17130
##pathy	20166
##ᅳ	30017
@	1030
fellowship	7881
visited	4716
steadily	11328
aboriginal	9757
deposit	12816
mongol	17450
reflect	8339
[unused852]	857
##aire	14737
bolted	18088
popping	20095
##dm	22117
##jean	27687
[unused637]	642
coordination	12016
banded	25264
annabelle	24722
elects	27161
ο	1169
##atus	15590
subcommittee	18052
conception	13120
[unused16]	17
ballistic	19630
##foil	24323
insurgents	20541
grazed	26627
unpredictable	21446
insert	19274
aircraft	2948
litres	25783
##kam	27052
ュ	1729
eastenders	28936
sen	12411
engineering	3330
motorway	13119
corporal	14265
[unused746]	751
生	1910
utilities	16548
##ulin	18639
purely	11850
minors	18464
##tling	15073
hostages	19323
##gement	20511
particular	3327
sheer	11591
papa	13008
##pe	5051
brilliant	8235
caution	14046
antoine	12445
ₕ	1564
imagination	9647
disk	9785
##ᄌ	30000
extracts	27059
moors	24812
##bow	18912
st	2358
those	2216
smith	3044
##chule	20269
smoothed	17966
taught	4036
rehabilitation	11252
##ffin	15379
sienna	20210
refreshing	27150
##里	30488
lex	17244
clark	5215
##lain	15987
antennae	28624
relying	18345
##uses	25581
gan	25957
hay	10974
##ٹ	29838
venice	7914
1892	6527
flavors	26389
fuselage	13478
##pw	28400
##rbin	27366
ladies	6456
playstation	9160
felony	24648
mirrors	13536
economic	3171
trading	6202
##chi	5428
buckinghamshire	21712
takes	3138
option	5724
[unused167]	172
tinged	22683
##mada	23574
##avs	29553
[unused624]	629
language	2653
1981	3261
firstly	15847
dunlop	27458
failing	7989
collected	5067
genuine	10218
conclude	16519
federally	20892
ھ	1307
refurbished	18662
something	2242
##mia	10092
zoom	24095
algorithm	9896
medicinal	20632
chairperson	19072
dvd	4966
providing	4346
psychic	12663
welterweight	20882
slightest	15989
consequently	8821
##icated	17872
##chua	26200
##recht	28109
layered	21323
brightly	14224
lyrical	16376
##~	29643
kabul	21073
kurt	9679
##mme	20058
raaf	22709
##原	30313
parcel	20463
61	6079
女	1815
1740	21757
testimony	10896
##eca	19281
eyebrow	9522
buttons	11287
##hood	9021
madness	12013
replay	15712
physiology	16127
kansas	5111
birch	16421
coalition	6056
ب	1271
dashboard	24923
introduces	13999
towns	4865
projection	13996
lens	10014
months	2706
butterflies	15023
horizontally	23190
robb	26211
royal	2548
broadcaster	11995
##rk	8024
hodgson	26107
sanders	12055
spatial	13589
##oder	27381
plume	26888
contributed	5201
##selle	19358
##shida	25541
##rso	25301
clothed	24963
alfred	6152
##tagram	23091
telugu	12180
た	1661
quarries	27069
##quil	26147
pulmonary	21908
finger	4344
moved	2333
completes	28123
histoire	20088
wilde	18575
consultant	8930
##mmer	15810
nate	8253
##non	8540
183	18677
quarry	12907
writes	7009
blossoms	28766
norris	15466
walls	3681
[unused488]	493
sailing	8354
sustain	15770
大	1810
mayhem	26865
bearded	23905
unusual	5866
##kes	9681
sloan	19024
shifts	12363
##jing	29518
hunched	20498
party	2283
young	2402
streamlined	29445
##dom	9527
##la	2721
investigative	15025
##34	22022
##omba	24991
reformed	9114
czechoslovak	21282
1791	14362
##cek	25368
desired	9059
[unused899]	904
locations	5269
activities	3450
operate	5452
##liner	20660
也	1750
malik	14360
intimacy	20893
##wick	7184
establishment	5069
plea	14865
nuremberg	19346
pang	20657
ф	1199
##lovic	29356
monument	6104
1925	4849
machinery	10394
##hawk	17998
romano	22070
permitting	24523
girlfriends	27408
equilibrium	14442
graduated	3852
greens	15505
laser	9138
believing	8929
wanda	20848
春	1867
divorced	9196
cha	15775
cluster	9324
macon	20025
infringement	20701
avail	24608
sheffield	8533
##away	9497
thicker	19638
sip	10668
##planes	26634
syndicate	16229
fifteenth	16249
##vil	14762
bit	2978
norms	17606
players	2867
recordings	5633
relates	14623
ellington	21630
橋	1885
218	20741
##ˡ	29716
ケ	1703
坂	1803
statutes	18574
varying	9671
relaxing	19613
colleague	11729
##མ	29968
contributions	5857
د	1278
pub	9047
ottomans	17774
erebidae	25875
primal	22289
hercules	15067
mattress	13342
grasping	20854
erica	19295
mysore	20761
liberty	7044
onward	15834
racing	3868
tours	7562
morally	28980
##ption	16790
lacks	14087
59	5354
aa	9779
cooled	12981
christi	21359
baltic	11275
therese	25598
1991	2889
bothering	17067
##mori	24610
[unused505]	510
favor	5684
venezuelan	15332
rewarded	14610
##wc	16526
##fast	24333
congregational	20809
warfare	8309
##ductive	26638
faint	8143
fascinated	15677
antibodies	22931
belong	7141
kitchener	27154
heinz	17655
[unused121]	126
cracked	9630
hugh	6621
arbitrary	15275
geese	28519
།	1425
##っ	30189
1721	27689
##ritan	25279
##cide	27082
controllers	21257
conductors	23396
glided	26936
palestine	8976
[unused696]	701
christchurch	15880
repay	24565
##38	22025
##elial	24587
forbes	10822
boxers	18508
stripping	23987
enclave	25867
##olic	23518
[unused902]	907
##slow	26338
winger	16072
bound	5391
[unused694]	699
laying	10201
dress	4377
posed	13686
assignment	8775
spent	2985
nigeria	7387
gin	18353
interceptions	18387
max	4098
##ッ	30237
dana	11271
385	24429
##tangled	27898
deutschland	28668
89	6486
nineteen	11977
thirteen	7093
teaming	27025
gives	3957
nintendo	10022
developmental	13908
crates	27619
proves	16481
##weather	28949
##rius	13245
kosovo	11491
eighty	12021
stopped	3030
broadband	19595
01	5890
dissertation	14481
donors	17843
thrive	25220
delivery	6959
fool	7966
repair	7192
##js	22578
custom	7661
anti	3424
starring	4626
ecclesiastical	12301
##ns	3619
##tech	15007
##hta	22893
expose	14451
salvation	12611
regain	12452
sensible	21082
mutter	23457
##get	18150
approximate	15796
quartz	20971
trevor	8672
stool	14708
penguin	13987
underlying	10318
alumnus	19678
israeli	5611
converse	23705
logos	25571
[unused966]	971
complexity	11619
convenience	15106
resist	9507
jake	5180
overly	15241
uncomfortable	8796
playoffs	7555
№	1578
ा	1340
impossible	5263
1889	6478
1864	6717
##ifier	18095
##ctions	22014
magdalena	23984
[unused579]	584
##ons	5644
ml	19875
tomatoes	12851
denise	15339
contingent	15445
slick	13554
kilograms	18857
marker	12115
departments	7640
##ination	12758
barr	19820
malicious	24391
relaunched	26391
ushered	23815
leto	24543
regency	15647
island	2479
beginning	2927
visas	24487
conserve	27749
##rma	17830
pills	15345
to	2000
lawsuit	9870
timetable	23839
alan	5070
niccolo	27033
atheist	23503
detrimental	29172
##nne	10087
duane	27319
locks	11223
facade	8508
郡	1959
260	13539
vie	20098
coral	11034
ngc	27645
annex	17827
ᵃ	1496
allied	6035
theological	9208
宀	1818
rail	4334
foxes	24623
extraction	14676
##sity	17759
174	19492
##islav	19834
mathews	23287
##taka	28412
spirit	4382
stares	14020
tolerance	13986
##breaker	21204
rein	27788
ethel	19180
brutality	24083
case	2553
standardization	28648
agencies	6736
strains	18859
##min	10020
##tale	22059
##3	2509
mata	22640
[unused476]	481
wolff	23498
baptiste	17329
walt	10598
門	1968
teachings	12209
##aus	20559
cosmos	21182
einstein	15313
##gai	23805
hanoi	24809
1756	22370
##uid	21272
grimsby	24470
exchequer	28889
bless	19994
police	2610
tap	11112
##sser	18116
linguistics	15397
cocoa	22940
rocco	28167
practitioner	18742
amalgamation	21968
##iled	18450
grades	7022
##xing	19612
trier	25487
commander	3474
techniques	5461
mobile	4684
b	1038
modified	6310
became	2150
ვ	1443
piston	16733
indices	29299
arrived	3369
intelligent	9414
[unused290]	295
elderly	9750
一	1740
rats	11432
bolivian	26075
flirt	27978
##pin	8091
penang	21812
##gni	29076
peel	14113
geared	23636
[unused682]	687
##da	2850
pu	16405
rule	3627
[unused107]	112
##es	2229
##ello	15350
meteor	23879
terminates	28790
##stis	29472
shades	13178
##ो	29879
[unused426]	431
fitzgerald	11864
schubert	24645
##ege	24746
winnie	27125
tong	15740
cecil	11978
linnaeus	21610
interviewed	10263
typing	22868
scheme	5679
ashamed	14984
murmur	20227
forte	24898
whirled	17097
potsdam	26554
fight	2954
replies	14054
harlow	22545
decree	10037
##မ	29973
ezio	23043
lived	2973
navy	3212
maintain	5441
bits	9017
scaling	25169
maharashtra	12434
##jiang	21786
aft	16638
foothills	18455
[unused235]	240
philadelphia	4407
[unused908]	913
ᅴ	1482
lock	5843
stopping	7458
sixth	4369
rotation	9963
1903	5778
123	13138
elliott	9899
口	1788
crop	10416
##aro	10464
bundle	14012
academic	3834
##pm	9737
lid	11876
figurative	29407
stiffly	27499
м	1191
tc	22975
jackson	4027
faulty	28927
pistons	24399
computation	22334
↔	1587
##ense	16700
natasha	17399
1663	29016
clyde	12085
[unused97]	98
oxfordshire	20124
anywhere	5973
##ax	8528
classroom	9823
liszt	26273
destroy	6033
##arian	12199
##saurus	22244
plum	22088
yer	20416
##x	2595
gunnar	26138
sweeney	21178
##urt	19585
calderon	28129
14th	6400
palace	4186
##ois	10054
##₩	30101
!	999
yankees	11081
routes	5847
28th	15538
##peed	25599
stealing	11065
##ₓ	30092
tensed	15225
reissue	17173
ذ	1279
stitches	25343
traditionally	6964
##k	2243
autism	19465
poznan	18320
dixon	11357
cassandra	15609
dempsey	28165
##ttered	14795
97	5989
##enna	24397
##cre	16748
vanished	9955
##hyl	29598
callum	15229
crunch	24514
odyssey	18735
##bat	14479
possible	2825
traction	16493
siblings	9504
revealing	8669
tomato	20856
wanting	5782
kawasaki	27324
includes	2950
counsel	9517
seats	4272
powder	9898
1796	13885
instituto	22596
##gical	26715
gabled	26182
avon	16131
##plate	15725
lured	26673
##yn	6038
parade	7700
##پ	29839
widely	4235
##pis	18136
##ard	4232
sustainability	15169
gastropod	10953
##51	22203
brennan	13962
##isch	19946
##chrome	20366
chips	11772
buck	10131
terre	25170
republic	3072
ล	1418
##uation	14505
geometric	14965
reunite	25372
##cd	19797
italian	3059
endured	16753
objection	22224
hurst	26405
deacon	14845
ram	8223
rolling	5291
competitor	12692
##ₙ	19110
stumbling	19730
prank	26418
##ist	2923
lithium	22157
housed	7431
##ako	20411
inflated	29561
neither	4445
prelude	19508
haggard	27912
840	28122
levin	20206
##ag	8490
mouthed	20521
##ity	3012
##haw	14238
riots	12925
reporter	6398
associations	8924
stalls	19753
1605	28202
[unused536]	541
spider	6804
air	2250
sunday	4465
revoked	22837
у	1198
michele	15954
bourbon	15477
homicide	18268
с	1196
bs	18667
##op	7361
stability	9211
##ism	2964
##rnier	28484
##ctive	15277
females	3801
unpaid	23850
[unused522]	527
tay	28117
雄	1974
false	6270
controversial	6801
affiliate	8727
##zen	10431
mortar	14335
lesson	10800
swallowing	18468
marcos	14810
##thermal	23367
nocturnal	23789
##forms	22694
我	1855
##foot	13064
helium	22764
puppet	13997
migrants	16836
proceeding	18207
encompass	25281
##so	6499
1649	26538
##uro	10976
averaged	11398
answering	10739
##rling	22036
smuggling	19535
ferocious	27863
message	4471
ascended	19644
rubbish	29132
enslaved	22216
kumar	9600
jonah	15617
##cratic	17510
hyper	23760
conquered	11438
resources	4219
passive	13135
33rd	20883
exam	11360
blackness	19573
[unused193]	198
professional	2658
##ances	26755
plotting	20699
##ip	11514
bombardment	10400
shrinking	28375
##inian	15830
november	2281
calmly	12885
romanesque	17135
transparency	16987
familiarity	24666
##jian	27685
sanskrit	11353
constructed	3833
valley	3028
##rize	25709
maria	3814
wider	7289
peoples	7243
continent	9983
nine	3157
benedictine	21139
volleyball	7454
##rey	15202
capitalist	19640
humanitarian	11470
centre	2803
shattering	21797
say	2360
##s	2015
##rina	11796
keyboardist	20173
complaining	17949
##moral	22049
##uin	20023
erection	13760
croix	18733
##moor	17622
1887	6837
converts	19884
trilogy	11544
dundee	14252
phonetic	26664
nicky	20158
institut	17126
horse	3586
foyer	16683
ী	1380
soil	5800
##turn	22299
##acious	20113
nightfall	28018
lulu	21744
bang	9748
education	2495
∅	1593
##kka	15714
subjects	5739
##using	18161
daddy	8600
nasser	26099
thorpe	20249
lund	21860
maximal	29160
hydra	26018
pixels	27725
maids	29229
secured	7119
attained	12754
ո	1232
ク	1702
desperate	7143
syria	7795
invention	11028
slipping	11426
pardon	14933
##abi	28518
waived	16301
reluctance	21662
wealthiest	27809
##nical	20913
object	4874
searing	25764
add	5587
##cey	25810
braking	24427
04	5840
lc	29215
bestowed	17398
secretary	3187
##icle	25128
##iano	15668
##岡	30358
1860s	15914
##fles	28331
##།	29961
帝	1838
kurdistan	23627
ᅵ	1483
仁	1758
domino	23968
rests	16626
undertaker	27568
loco	28046
##民	30418
guidelines	11594
##suit	28880
contacted	11925
suspended	6731
fine	2986
consultants	22283
leapt	13920
rigged	25216
[unused269]	274
olds	19457
##nted	14706
danny	6266
rarely	6524
bailey	8925
authorized	9362
panicked	16035
accession	16993
madagascar	11934
toilets	21674
attends	23933
punta	27377
iqbal	28111
oversight	15709
##tro	13181
reckless	18555
octagonal	22340
kn	14161
heavyweight	8366
clothes	4253
filters	17736
[unused740]	745
rounded	8352
lenin	17497
ს	1452
defence	4721
##ひ	30199
##rting	24097
ð	1098
intent	7848
biceps	27947
##abia	29039
operator	6872
##と	30192
dorian	16092
comprehensive	7721
reliance	17975
dedication	12276
1784	16496
growling	22413
deserted	12768
##pts	22798
ioc	25941
airfield	9087
##ules	16308
nepali	23418
grenada	29153
yanked	10963
stick	6293
mergers	28585
integrated	6377
interpreted	10009
suburb	7575
waterfall	14297
##司	30317
##year	29100
trying	2667
unlike	4406
##itis	13706
acting	3772
limo	23338
##面	30502
range	2846
martha	9246
brandt	19407
chimed	27460
##rons	28212
other	2060
sundance	20140
concentrating	16966
splashed	22055
##thesis	25078
mike	3505
curses	23897
##ene	8625
decided	2787
injunction	22928
epithet	19626
wrecked	18480
##hrer	17875
ł	1105
swimming	5742
sloping	24724
draught	25349
millennia	27620
visionary	28036
##⟨	30155
enrique	15769
stream	5460
starts	4627
strictly	9975
gauge	7633
##und	8630
checking	9361
##say	24322
##ring	4892
denis	11064
sneaking	20727
combat	4337
1672	27253
##վ	29782
##न	29863
quiet	4251
surrounded	5129
curved	9203
usa	3915
raymond	7638
fortified	13313
malaria	19132
syllables	20732
[unused432]	437
lipstick	22359
caretaker	17600
resigned	5295
tighten	21245
##lbert	23373
upheld	16813
behalf	6852
explicit	13216
emission	15760
appliances	22449
mandela	26887
relating	8800
mixing	6809
implied	13339
noisy	20810
harp	14601
situ	26179
1983	3172
elsewhere	6974
obtained	4663
##こ	30181
undefeated	15188
antennas	26315
delaying	29391
anzac	29224
duration	9367
##ins	7076
tammy	19971
sul	21396
blanca	27538
reddish	14182
declines	26451
inhabited	9613
devils	13664
drives	9297
airbus	20901
analogue	21800
fr	10424
##uate	20598
[unused233]	238
evaluated	16330
sas	21871
ellis	8547
manpower	22039
##hair	26227
nylon	27201
##cular	15431
detainees	26485
##tique	28437
##osta	28696
husky	18758
bombardier	29143
##iate	13143
[unused929]	934
##ots	12868
andrey	29219
muller	12304
groundwater	22761
entertainment	4024
knowles	22815
slid	4934
##ट	29856
corbin	24003
213	19883
geographic	9183
##used	13901
bitten	19026
piracy	24386
ン	1737
##י	29796
again	2153
households	3911
前	1776
[unused621]	626
follow	3582
susan	6294
nutrients	20435
hallmark	25812
⺼	1633
rogers	7369
refugees	8711
chandler	13814
looks	3504
boroughs	21413
falling	4634
keynes	22152
pitcher	8070
fielded	20988
য	1371
inadequate	14710
##dled	20043
itf	27682
yuki	24924
stunning	14726
flaws	21407
##mics	22924
wondered	4999
authentic	14469
aid	4681
spare	8622
launches	18989
points	2685
caressed	21473
exposing	14944
suspect	8343
bjorn	24998
##garh	13484
crane	11308
catholicism	16138
midlands	13256
residual	21961
markers	16387
[unused346]	351
householder	7536
##ann	11639
##mber	21784
brock	13899
[unused390]	395
wheelbase	29141
obtain	6855
regulating	21575
respondents	25094
thirties	26313
baby	3336
lsu	21849
外	1809
buffer	17698
elliot	11759
voluntary	10758
updates	14409
taste	5510
jay	6108
##bari	25990
cabinet	5239
adi	27133
##ads	19303
##ल	29870
bolton	12118
##founded	21001
mcgraw	24179
##tions	9285
spurs	18205
toes	10393
outlawed	29131
##opsis	22599
circuits	13782
er	9413
skies	15717
searching	6575
wax	13844
publicity	11845
halloween	14414
dr	2852
mellon	22181
occasionally	5681
cumbria	25559
amplifiers	28633
301	19123
luc	12776
„	1525
performances	4616
harvest	11203
–	1516
##ndi	16089
crazed	28343
advertisements	14389
controlled	4758
curry	15478
1815	10679
rampage	29216
coyotes	26880
ɾ	1126
##œ	29674
intro	17174
adolf	12500
mer	21442
sane	22856
eric	4388
sar	18906
##ogy	15707
ᴵ	1493
markus	23030
[unused597]	602
sessions	6521
harvested	22629
##izes	10057
shapiro	24630
opium	21075
graceful	19415
yellowish	17804
[unused456]	461
back	2067
clones	24418
kendrick	25341
rochelle	25649
ড	1360
ぬ	1669
zone	4224
bus	3902
augusta	13635
##quest	15500
delilah	23006
1b	26314
implies	12748
habit	10427
racecourse	15948
harding	15456
cognition	26497
##ण	29858
##onal	16026
fest	17037
winery	23910
accolades	27447
wore	5078
interpreting	25455
released	2207
354	27878
tyler	7482
slightly	3621
hat	6045
handball	12378
sept	17419
bellamy	25544
written	2517
unity	8499
abigail	15983
denominations	17384
heels	8265
before	2077
##ⁱ	30072
##missive	27876
birds	5055
bow	6812
contacts	10402
mafia	13897
[unused108]	113
fortress	7841
cord	11601
##hear	26560
ramsay	19460
scripted	22892
bud	13007
moans	24675
uniformly	27423
gown	11739
laurence	10883
feather	15550
sometime	8811
mcpherson	24332
laurent	14718
thirteenth	14725
regulator	21618
##raction	25533
weiss	17889
geraldine	26987
constitutes	17367
stock	4518
þ	1101
leary	22986
##lage	20679
sentinel	16074
stunned	9860
went	2253
gareth	20243
golfer	20601
[unused259]	264
transcribed	26223
viscount	12182
satisfactory	23045
drought	14734
##earing	27242
afterward	9707
[unused234]	239
outlying	25376
##zzy	28753
barked	17554
draper	23641
auxiliary	9830
##lon	7811
ξ	1168
telecom	18126
[unused819]	824
90	3938
hampton	11615
twenty	3174
alternating	15122
156	16734
阿	1971
cathy	18305
##tenberg	21806
##rong	17583
napoli	29485
murdering	21054
assure	14306
mathematicians	29374
roadway	18799
##itia	29050
paula	13723
mara	13955
ste	26261
instructors	19922
syrian	9042
མ	1432
##tos	13122
causeway	23336
##cise	18380
sensitivity	14639
forearm	16148
rainy	16373
infancy	22813
songs	2774
compete	5566
appointment	6098
wryly	28325
along	2247
fivb	28423
扌	1859
foundation	3192
told	2409
builders	16472
875	27658
scattered	7932
##dic	14808
##connected	24230
gentry	20262
##ɒ	29678
reconstruction	8735
##西	30473
##mates	15416
induction	15946
phylogenetic	23192
##金	30490
hamas	22129
ordeal	23304
monaco	14497
##abad	10542
hash	23325
manufacture	9922
grew	3473
incorporates	12374
sponsorship	12026
neighborhoods	11681
1700	16601
##physics	15638
archbishop	6507
immortals	26796
foliage	19624
equity	10067
##む	30205
[unused903]	908
8th	5893
[unused658]	663
cab	9298
starvation	22611
##placed	22829
impaired	18234
starters	29400
unfinished	14342
sidney	11430
needles	17044
dams	17278
bright	4408
mystery	6547
janet	9965
##anda	13832
painter	5276
reflects	11138
##ams	13596
##gr	16523
three	2093
arcadia	25178
favourites	28271
##ibility	13464
##shore	19208
[unused591]	596
enlightenment	16724
campaign	3049
sherlock	20052
hurt	3480
contrasting	22133
nik	23205
[unused307]	312
content	4180
[unused567]	572
51	4868
blitz	22312
campuses	13696
slab	17584
temples	8436
venetian	15510
##ytic	21252
stance	11032
norwegian	5046
cozy	26931
con	9530
stony	16104
[unused298]	303
##washed	27283
gamma	13091
frightening	17115
deaths	6677
15	2321
##fm	16715
ensembles	21528
##xon	22500
##ppel	27877
##ـ	29832
biking	28899
timbers	26238
perch	21836
unless	4983
##zi	5831
pleasure	5165
library	3075
erased	23516
stacy	18566
guadalajara	22887
##sation	26652
superhero	16251
humanist	24464
##kova	18810
pained	22295
##genesis	23737
##■	30144
direction	3257
uncommon	13191
[unused907]	912
##idge	13623
##uy	26230
[unused471]	476
else	2842
dinosaur	15799
with	2007
factual	25854
germanic	15139
converge	28314
swing	7370
1826	11931
##apa	22068
biography	8308
##同	30320
preview	19236
1652	28853
2000	2456
mathematical	8045
comune	21130
##*	29621
servicemen	26714
##ke	3489
##istic	6553
jiangsu	28091
world	2088
theresa	14781
or	2030
instituted	14948
vest	17447
emi	12495
##dent	16454
##inge	23496
¿	1094
ז	1247
military	2510
stephenson	19789
australian	2827
confirming	19195
##phile	24862
hereford	21136
curls	14484
mckay	16225
laureate	17656
rick	6174
[unused166]	171
##skaya	23070
itv	11858
##anus	20849
reunion	10301
marching	10998
unconventional	23693
strategic	6143
bukit	29007
hacking	23707
questioned	8781
##wski	10344
np	27937
##cca	16665
transformation	8651
correlation	16902
##sie	11741
abs	14689
ideological	17859
chavez	16860
seating	10747
murdoch	19954
checked	7039
##bell	17327
passed	2979
redding	26687
##đ	29671
raked	22438
##boot	27927
[unused447]	452
demonstrators	28337
offset	16396
advantage	5056
fantasies	21233
##anum	27975
laval	26205
hovering	16349
russians	12513
##lock	7878
dismissed	7219
snapped	5941
insight	12369
mgm	15418
restaurants	7884
ambitions	19509
metals	11970
thighs	9222
courtship	28592
nay	29349
vanderbilt	17066
melt	14899
exclusive	7262
##rand	13033
##idal	16975
##ntine	26730
integrity	11109
protocol	8778
story	2466
archaeologists	19254
constructive	26157
560	21267
propellers	23405
horatio	27752
tech	6627
lyon	10241
wichita	18614
snowy	20981
##bi	5638
domesday	22310
bracing	25919
century	2301
prisoner	7267
inflammation	21733
javelin	23426
emigration	20387
pitched	8219
revolution	4329
##ppe	21512
seeing	3773
identifying	12151
##朝	30400
##cel	29109
##か	30177
##oted	27428
hoped	5113
perth	9300
[unused33]	34
##ad	4215
##ere	7869
harvesting	21534
commodity	19502
gilmore	22999
diner	15736
allows	4473
weather	4633
porsche	16099
choreographed	23317
##onis	27296
義	1936
leonard	7723
depict	17120
excluding	13343
expansion	4935
quincy	16141
229	22777
fordham	27302
weimar	20695
loneliness	20334
bias	13827
##orum	20527
spicy	25482
unauthorized	24641
2021	25682
##56	26976
apartments	9620
spacecraft	12076
restart	23818
##lessness	24913
##fighting	22158
ashford	26545
pool	4770
ceasefire	26277
stevens	8799
operatives	25631
rooted	15685
successes	14152
mcgrath	23220
##口	30314
suv	15620
violins	25877
##uez	29488
viktor	13489
gdansk	21942
combinations	14930
##skie	23955
##led	3709
pleaded	12254
##etched	29574
greet	17021
stipulated	25729
genetic	7403
hines	25445
彳	1845
##uous	8918
healthcare	9871
lawful	26410
breaststroke	28164
thompson	5953
frederick	5406
humane	23369
##sily	26863
heroism	27117
oliveira	24263
thereafter	6920
ན	1429
186	19609
##♣	30151
biplane	28686
ハ	1718
duties	5704
verbs	16025
か	1651
306	24622
ti	14841
mound	12048
peak	4672
leasing	26707
modeled	14440
gotten	5407
costs	5366
recycling	17874
carpets	27997
##worthy	13966
[unused41]	42
privy	14452
transporting	18276
242	22431
cm	4642
baskets	25946
greensboro	27905
##貝	30478
fertility	17376
##ت	29817
##oche	23555
inmate	24467
∨	1603
cylindrical	18797
boomed	28908
doe	18629
##dine	10672
##erine	24226
##kt	25509
ir	20868
ill	5665
martinique	29365
##rled	27501
167	16785
created	2580
fragrance	24980
opt	23569
outward	15436
trio	7146
bets	29475
pa	6643
cried	6639
damaging	15011
cum	13988
##ify	8757
580	23712
global	3795
takeoff	19744
vortex	23463
[unused810]	815
woven	17374
worcestershire	20218
##×	26306
sleeping	5777
shower	6457
observer	9718
mitch	11857
moniker	21937
plaque	11952
appointed	2805
douglas	5203
statements	8635
coaster	16817
##finder	23695
##eur	11236
metaphor	19240
##ヘ	30247
serra	22737
trough	23389
playing	2652
##king	6834
##lls	12718
intel	13420
##dington	21504
legion	8009
burials	23109
katharine	25739
##uw	25974
praising	15838
krishna	10871
eels	29317
mentioned	3855
recommend	16755
diana	8805
wished	6257
nikki	14470
interface	8278
exercised	17747
madeline	16974
勝	1780
brownish	19437
compilations	22754
gaines	28645
del	3972
mining	5471
commons	7674
soyuz	29412
collaboration	5792
fargo	23054
liz	9056
presidential	4883
trivial	20610
1867	7517
陽	1973
[unused65]	66
departed	7745
wyoming	10622
curly	17546
##ত	29898
##eley	22352
museums	9941
pin	9231
orbiting	26472
faith	4752
sunny	11559
liberties	18271
hormone	18714
allegiance	14588
##hold	12640
tribune	10969
clayton	11811
##ctum	27272
tuning	17372
because	2138
##rai	14995
projections	21796
##す	30184
impoverished	25488
intense	6387
hurry	9241
fun	4569
newcomers	24159
longed	23349
cavalier	28778
19th	3708
washington	2899
employees	5126
dubbed	9188
darlington	19667
##थ	29860
portland	6734
belongings	20033
bandage	24446
##|	29641
prizes	11580
ろ	1689
capacities	21157
walters	19097
coughed	19055
rapidly	5901
314	26257
predators	12630
##lative	26255
airship	27636
bosses	23029
02	6185
utter	14395
send	4604
kathleen	14559
jewellery	21545
70s	17549
south	2148
pcs	27019
blocking	10851
insides	19008
chao	22455
wilbur	26151
[unused818]	823
vow	19076
marquis	13410
ョ	1730
terrific	27547
interchange	8989
dyer	23494
##bing	10472
attire	20426
slovenian	16583
deborah	15555
merchant	6432
joao	16304
smiled	3281
election	2602
##rdi	17080
##fle	21031
″	1532
##平	30365
abilities	7590
aye	13442
weekly	4882
1830	9500
noelle	22336
##sted	14701
marina	9985
vicente	17280
ᵈ	1498
[unused645]	650
shutter	28180
sf	16420
absently	21284
lucia	12337
tortured	12364
##phobia	24920
##35	19481
##erson	18617
transferred	4015
shah	7890
grease	21956
##'	29618
works	2573
kinase	21903
mermaid	22322
[unused796]	801
embankment	22756
区	1782
hot	2980
mercenary	22146
dunn	14145
frescoes	23360
cliff	7656
meek	28997
masonry	18103
lyric	13677
root	7117
hourly	21462
fundraising	15524
narrowing	21978
tsar	17608
concepcion	27331
##lase	25002
visitor	10367
239	23688
##rgeon	28242
mustafa	19683
##仁	30284
##海	30428
pains	20398
showered	23973
##zhou	9791
##oxide	28479
##otho	29288
moral	7191
[unused844]	849
reactors	22223
reading	3752
het	21770
strongest	10473
norfolk	7735
ukrainian	5969
##maker	8571
事	1751
##ʰ	29706
[unused335]	340
matrix	8185
319	26499
puppets	26101
replace	5672
harper	8500
elise	14251
shelby	15294
ы	1206
guarding	17019
mannheim	25116
drifted	10070
##ф	29749
##ס	29804
catalytic	26244
beaux	20290
connector	19400
##ₒ	30091
chew	21271
##hdi	22960
translates	16315
assisting	13951
impairment	25172
constituency	5540
smyth	28103
explorers	19264
##ifer	23780
##？	30520
401	22649
##verted	26686
[unused220]	225
lance	9993
barons	21487
furry	28662
fx	23292
##gis	17701
wilkinson	16237
shootout	18297
##cko	19665
##xious	25171
eun	26070
rack	14513
brandon	8825
honors	7836
beamed	22587
den	7939
transformations	21865
##pore	26691
angelo	12262
sufficient	7182
smashed	14368
attractive	8702
##keeping	18321
cp	18133
##ₑ	30090
##訁	30475
irish	3493
nikolay	28494
veterans	8244
bundesliga	14250
outset	26674
vary	8137
tangle	24453
329	29567
##rral	24988
cheltenham	18763
athens	7571
nic	27969
press	2811
target	4539
songwriting	14029
deterioration	26118
therefore	3568
shit	4485
advertised	17099
sucks	19237
granite	9753
[unused126]	131
##ways	14035
forum	7057
charities	15430
proxy	24540
describes	5577
##lore	20186
produce	3965
marian	14042
<	1026
eduardo	14846
##fc	11329
constructing	15696
##sas	20939
patting	26085
try	3046
##』	30170
italia	13052
田	1911
ख	1316
ₑ	1561
levant	24485
##dome	26173
##oca	24755
red	2417
##ents	11187
##loading	18570
anyone	3087
touch	3543
##iae	19001
stood	2768
divert	27345
[unused383]	388
##hoff	17896
nursing	8329
crowns	24364
##nsis	11745
##nah	15272
contemporary	3824
230	11816
##iser	17288
##cke	19869
fingertips	12206
##ulo	18845
ms	5796
neighbours	14754
tracking	9651
waldo	28806
##db	18939
invasive	17503
classic	4438
ව	1407
fat	6638
tongues	19677
hope	3246
landscaping	28404
seas	11915
characteristics	6459
##escence	28964
##ty	3723
##bro	12618
clarity	15563
otago	21831
##meo	26247
##ђ	29758
##straße	24967
龸	1983
bestseller	24304
security	3036
harrow	24560
##mana	24805
pen	7279
pyramid	11918
##naut	24619
tuscany	23322
dwellers	28857
ゆ	1683
hugo	9395
##lia	6632
lesser	8276
る	1687
cleavage	28691
##imi	27605
kimberly	23729
उ	1313
trend	9874
celtics	23279
sounds	4165
topological	24309
walked	2939
willoughby	24919
designers	11216
francoise	28979
##ɬ	29687
##ן	29802
v8	15754
donovan	12729
bethel	19375
氵	1894
lehman	28444
value	3643
ashore	16145
somehow	5064
navigable	28538
imported	10964
##vio	25500
directorial	21635
loyalist	23414
1789	13739
335	24426
veterinary	15651
handsome	8502
harmful	17631
bathing	17573
ness	23384
predict	16014
##case	18382
[unused519]	524
openings	16556
borneo	15688
pumped	16486
heavenly	16581
##tina	13770
##lub	27959
utilized	12550
##use	8557
宮	1824
celebrates	21566
##wari	20031
##oso	19137
weary	16040
practices	6078
katie	9734
ी	1342
excavations	14018
chemicals	12141
checkpoint	26520
economics	5543
tending	25069
shelves	15475
concourse	28571
cherry	9115
shelly	28360
seahawks	21390
rand	14566
marvin	13748
locate	12453
##寺	30353
##hering	22658
##ifolia	29244
##–	30051
prohibits	25822
undisclosed	18206
dipped	13537
torah	16297
##hand	11774
robot	8957
##j	3501
mughal	17877
linen	17517
hill	2940
bryson	26845
petitions	24320
##pf	14376
disbelief	12537
pioneer	7156
airborne	10519
steak	21475
##耳	30463
let	2292
tasmania	12343
incorporation	16935
##llins	26655
successively	24288
docks	15093
bauer	17838
⊂	1610
spraying	29035
learners	26262
##athan	29246
shipping	7829
waivers	28654
fungus	16622
mccain	19186
尚	1830
unsafe	25135
wash	9378
1638	27497
maharaja	21609
##dgets	28682
thud	20605
settler	18556
saxony	13019
wikipedia	16948
24	2484
judd	20128
##lea	19738
lancashire	9638
marketing	5821
##np	16275
unused	15171
brewing	16005
[unused760]	765
tensor	23435
[unused418]	423
kicked	6476
blade	6085
screw	11224
fortunes	18023
##lco	22499
measuring	9854
##elman	23830
##ハ	30244
tiger	6816
healing	8907
alzheimer	21901
coordinated	14206
bu	20934
hammersmith	28420
biblical	10213
bruise	24851
gambling	12219
calculus	19276
supernatural	11189
arizona	5334
guy	3124
hosts	6184
##uity	18518
stills	26105
attaining	26615
##bered	22408
claudius	25017
altered	8776
xl	28712
server	8241
ow	27593
colombo	16224
##stown	13731
##sto	16033
##yama	11613
conduct	6204
合	1792
draped	15098
poetry	4623
crashes	19119
##ø	16415
incentive	20438
saddle	12279
special	2569
simplicity	17839
entertain	20432
cited	6563
enhanced	9412
bacteria	10327
##ting	3436
##plication	21557
show	2265
##wny	22251
ventures	13252
##rade	13662
mediated	19872
rendition	19187
dodd	21258
baseline	26163
dutton	28784
##ך	29797
reacted	14831
location	3295
concurrently	15442
decrease	9885
skill	8066
sinclair	11881
tandem	18231
weave	25308
將	1828
[unused918]	923
[unused926]	931
surgery	5970
concluding	16228
##ols	27896
75	4293
「	1641
seized	8243
nadia	14942
##acion	21736
oaxaca	26923
campos	26925
##lch	29358
circling	18519
annoyance	17466
puff	23893
merging	16468
carla	17081
charley	20430
embodied	25405
##ก	29945
253	23254
mama	9588
motorcycle	9055
trondheim	26331
aberdeen	12080
variants	10176
waves	5975
tamara	21772
joshua	9122
vikings	13468
gaston	18572
selena	19166
princely	22771
archaeologist	18821
rectangular	10806
devoid	22808
##och	11663
undermine	25174
##by	3762
circle	4418
accompany	12673
johannesburg	15976
##haya	26115
خ	1277
##政	30386
##itive	13043
respectful	26438
triangles	27189
haunted	11171
commendation	23039
recreation	8640
235	17825
keane	27228
breeds	15910
surplus	15726
literacy	8433
rafe	15819
quotes	16614
confronts	17628
multiplication	24856
##ished	13295
##iol	20282
quinn	8804
excellent	6581
detectives	18145
##ட	29920
olympus	26742
minor	3576
strands	14119
oswald	17411
（	1987
fingers	3093
##mat	18900
accumulate	27598
poles	10567
hideout	29588
ascent	16354
mint	12927
protect	4047
php	25718
spire	19823
supermarket	17006
receivers	19278
somewhere	4873
distributors	22495
ך	1251
featherweight	27145
##⽥	30160
inuit	25179
realism	15650
confined	12302
bother	8572
handwriting	24149
##rmi	28550
chairs	8397
##eth	11031
amendment	7450
defenders	12534
trouble	4390
prediction	17547
##hong	19991
sparta	21251
##ظ	29829
shi	11895
jackets	17764
##ɡ	29682
establishing	7411
pointer	20884
##dier	24612
imaginary	15344
##offs	27475
##ythe	26688
egyptians	23437
exclude	23329
≈	1606
##drick	24092
noir	15587
unavailable	20165
##iac	20469
##გ	29976
azerbaijan	8365
horace	12757
narratives	22143
侍	1765
elevator	7764
convert	10463
death	2331
waste	5949
inn	7601
politics	4331
stack	9991
##aged	18655
influenza	24442
erskine	27139
##kovich	28195
caliphate	28034
paramount	11734
administrative	3831
##text	18209
blinds	28279
boost	12992
##anal	27953
rochester	10541
contentious	29308
fraternity	13577
akin	17793
##rgan	16998
attackers	17857
violating	20084
##rrick	24999
司	1791
mid	3054
surely	7543
consecutive	5486
##ja	3900
guzman	22789
##lten	29005
approve	14300
eagle	6755
performing	4488
beyonce	20773
evolution	6622
chet	25157
organizations	4411
number	2193
initiative	6349
fractures	28929
brent	12895
twelve	4376
arlington	13929
##80	17914
signalling	21919
bitterness	22364
limitation	22718
approximation	20167
##ᵉ	30035
##gie	11239
chapters	9159
motion	4367
highness	17114
executed	6472
transform	10938
bennett	8076
barrel	8460
nominee	9773
petersen	22615
suffered	4265
molecules	10737
endowment	15108
##愛	30379
[unused428]	433
norman	5879
rapids	12775
##oed	29099
remain	3961
counter	4675
todd	6927
dynamite	21719
pulsing	23139
homer	11525
stole	10312
sgt	17001
contrary	10043
1952	3999
##bos	15853
cones	23825
severn	24753
##itt	12474
marino	17185
births	18250
bunny	16291
conceded	15848
bartholomew	19866
夏	1808
merit	7857
somebody	8307
##llen	12179
ramps	24943
guitarists	28523
nashville	8423
56th	29087
cu	12731
few	2261
##dly	18718
his	2010
##le	2571
[unused750]	755
[unused675]	680
eldest	7310
creator	8543
kathmandu	28045
љ	1215
##hopper	27330
alloys	28655
tying	15233
##wig	16279
[unused177]	182
scholarship	6566
innovative	9525
m²	7030
tons	6197
##enstein	21819
servant	7947
compensated	29258
brushed	7765
described	2649
wakefield	16045
arrogance	24416
つ	1664
aziz	21196
－	1990
[unused129]	134
moth	5820
electors	19165
holiday	6209
kilda	22633
rookie	8305
##poulos	24662
deteriorating	28440
latham	28737
lauderdale	23520
##ato	10610
##gami	26517
convertible	22840
accent	9669
»	1090
mates	14711
##listic	27348
listening	5962
acclaim	10761
macleod	23075
##gli	25394
##erre	28849
bien	29316
registering	25719
partnering	27001
cannon	8854
##ail	12502
verona	20197
matthew	5487
evaluation	9312
hormones	20752
##eti	20624
জ	1358
mary	2984
##rdon	28176
missed	4771
glimpse	12185
##ulously	21227
dina	26146
spacious	22445
##pd	17299
criticisms	19628
belonged	6272
griffin	9258
flemish	15427
enjoys	15646
candidates	5347
polynomials	28175
##ng	3070
reel	15934
devlin	24389
rica	11509
destruction	6215
winnipeg	11093
##back	5963
formats	11630
##chs	18069
drums	3846
##00	8889
descend	18855
sentencing	23280
upton	26900
trustee	13209
##enter	29110
×	1095
poll	8554
solvent	23735
##mist	23738
pondered	28347
committing	16873
builder	12508
liking	16663
spontaneous	17630
।	1344
nicholas	6141
##idi	28173
dragged	7944
childish	24282
spit	13183
##©	29652
stretch	7683
turtle	13170
fuels	20145
mechanisms	10595
valve	10764
graf	22160
[unused60]	61
[unused338]	343
limits	6537
downwards	28457
okinawa	15052
vines	16702
pink	5061
paisley	23321
bands	4996
flourish	24299
hello	7592
##rug	26549
quakers	28301
wellness	25860
cakes	22619
generalized	18960
train	3345
##riz	21885
growled	8881
transylvania	20816
stronger	6428
ashby	28729
bjp	24954
kingston	9803
[unused860]	865
quite	3243
bass	3321
overall	3452
##tham	22536
39th	22702
##rro	18933
contract	3206
challenging	10368
det	20010
comprehension	26683
pertaining	20246
μ	1166
marketed	11625
[unused305]	310
periods	6993
2010	2230
micah	17665
globally	16452
subdistrict	24150
contemporaries	16682
newfound	27608
burlington	15552
clearance	14860
planted	8461
depicting	10775
upbeat	27999
byte	24880
stout	18890
americas	10925
understanding	4824
mobility	12969
https	16770
valiant	24329
necessity	13185
[unused50]	51
ᶜ	1511
taxes	7773
α	1155
##yar	13380
availability	11343
133	14506
duffy	17971
coyote	20457
dreams	5544
##stadt	21543
soaring	23990
##π	29731
miranda	9392
##fighter	20027
extant	12905
pick	4060
##opers	27342
sandals	24617
##ք	29786
##ern	11795
bully	20716
exploited	18516
z	1062
express	4671
nancy	7912
holly	9079
rating	5790
chased	13303
watson	7908
costume	9427
geoff	14915
castro	11794
い	1647
sea	2712
padded	20633
stocked	24802
##イ	30221
plus	4606
boeing	10321
mainline	20575
cottages	18918
arc	8115
civilian	6831
##rza	24175
ნ	1449
abc	5925
sapphire	21965
form	2433
birmingham	6484
shakes	10854
ctv	28720
identities	15702
arching	27335
crested	25413
##base	15058
abstract	10061
definitions	15182
##oids	17086
grasses	21620
contest	5049
mexican	4916
unreliable	23579
cedar	11354
##tting	13027
##oper	25918
basketball	3455
holy	4151
doctorate	8972
cricketer	9490
##ically	15004
disrupted	20275
fiancee	19455
argument	6685
##nut	24072
holidays	11938
improper	24156
sears	18493
textual	25304
collins	6868
poole	19107
b1	29491
damon	11317
clair	17936
##shaft	25679
glue	25238
elf	17163
create	3443
elbow	8999
algae	18670
squat	26783
sold	2853
oracle	14721
mastering	11495
comrades	19033
roommate	18328
slovakia	10991
[unused913]	918
practicing	12560
[unused772]	777
institutional	12148
jays	18930
##outs	12166
##uo	19098
gerais	29220
##श	29872
mendes	27916
reggie	17963
##tman	22942
setup	16437
scare	12665
donegal	25415
mainland	8240
programmes	8497
motorsports	20711
elites	27021
hs	26236
mutually	20271
ps	8827
ivo	28346
scoring	4577
illustrious	26150
1560	29185
[unused958]	963
##ped	5669
agreed	3530
horton	18469
dukes	16606
laird	21964
⁴	1538
galway	14370
sticky	15875
nippon	19364
##cana	28621
fabricated	24212
##kind	18824
instant	7107
tests	5852
##ken	7520
operas	14281
butler	7055
magnitude	10194
az	17207
nh	18699
ames	19900
frown	11330
wigan	15598
petals	15829
expertise	11532
asiatic	23983
uh	7910
[unused187]	192
neck	3300
harpsichord	26504
sets	4520
buzzed	21377
##erin	23282
screams	11652
fall	2991
disposal	13148
##tility	18724
nightmare	10103
drain	12475
comprised	11539
##∘	30126
sato	20251
erwin	22209
recently	3728
hazel	14015
[unused96]	97
notch	18624
##ised	5084
wing	3358
suspicious	10027
五	1753
perpendicular	19581
flute	8928
lunatic	26594
croft	28983
animals	4176
soloist	16504
leveled	22915
authors	6048
warlock	28861
##ᄐ	30003
suck	11891
##bour	25127
stench	21555
atoll	22292
hunting	5933
benson	11999
pamela	17217
##xton	14226
compute	24134
church	2277
1690	24765
abel	16768
current	2783
yesterday	7483
scotia	9676
32nd	20628
squads	20191
narayan	24331
monterrey	26843
fuss	28554
prentice	23429
plane	4946
paris	3000
warner	6654
ride	4536
##lington	18722
grinning	11478
beirut	15335
bum	26352
thanking	28638
hired	5086
egg	8288
plague	11629
langdon	15232
dar	18243
cryptic	26483
chance	3382
leave	2681
respects	17475
##dern	25888
skull	7412
sizable	25908
inaccessible	29104
these	2122
136	15407
transmissions	21670
explicitly	12045
nationalist	8986
valle	20171
snarled	15022
mozambique	16274
cia	9915
len	18798
rigorous	20001
⁶	1540
trained	4738
emphasizing	22671
excitedly	23885
##ع	29830
litter	19070
目	1918
[unused228]	233
odessa	19693
applicant	23761
reduces	13416
distributing	20083
##has	14949
semifinals	8565
storey	11676
unusually	12890
奈	1814
promise	4872
##proof	18907
axle	17290
eastbound	24773
chennai	12249
groups	2967
instantly	6880
##mium	27759
##hak	20459
##co	3597
ض	1285
compose	17202
rivers	5485
winning	3045
##mology	20570
translucent	22897
[unused790]	795
bernhard	21432
intervention	8830
##ele	12260
finely	22126
recreational	10517
160	8148
enrolled	8302
currency	9598
switches	15924
subjective	20714
speedway	10688
support	2490
clube	24852
09	5641
basalt	26343
resolve	10663
dupont	22848
gibbons	22194
comments	7928
light	2422
tatar	29241
ﬁ	1984
##rcus	29006
dot	11089
suppose	6814
arrondissement	20522
##him	14341
mls	16287
dread	14436
inscriptions	12920
discount	19575
trapping	22977
frequented	24832
integrate	17409
substantive	27737
##are	12069
inflation	14200
portraying	17274
arising	17707
mentioning	18625
faults	19399
##gong	17036
messages	7696
clive	14675
existence	4598
##tock	17406
##hang	18003
yourselves	25035
pharmaceutical	13859
berries	22681
[unused296]	301
inception	12149
rowan	14596
fidelity	22625
##vary	21639
##宀	30344
morton	11164
ears	5551
referendum	9782
priests	8656
tibetan	11953
huff	21301
[unused877]	882
unnatural	21242
ally	9698
consultative	28581
##fa	7011
yep	15624
champions	3966
johnstone	24160
##oic	19419
going	2183
captivity	16187
1878	7261
meg	12669
concealed	14091
##vate	16952
##sha	7377
euroleague	26093
nervously	12531
conquer	16152
torment	21741
##ee	4402
##bina	21114
executives	12706
##imov	25299
fields	4249
spokesperson	15974
##ধ	29901
##voking	22776
rudd	25298
##hiti	27798
##ᵈ	30034
treats	18452
deficit	15074
truman	15237
alabama	6041
##lius	15513
whipped	12428
dropping	7510
##tung	21847
supplier	17024
~	1066
##going	26966
lined	7732
##sil	27572
bono	23648
kaye	23686
##mas	9335
flock	19311
dame	8214
##ms	5244
achilles	23167
bags	8641
offenses	25173
uber	19169
nickelodeon	20814
here	2182
##venting	26703
##lat	20051
indirectly	17351
sikhs	26697
islanders	16422
ptolemy	23517
##bert	8296
continuous	7142
thrusts	25842
regret	9038
clustered	25221
mollusk	13269
1735	26063
freaking	13847
##morphic	18078
macquarie	23903
etat	17997
skaters	24789
commanders	11437
poor	3532
yen	18371
kitten	18401
backed	6153
##mise	28732
painting	4169
##zzle	17644
jewish	3644
intensity	8015
pastor	9220
castle	3317
basha	26074
limbs	10726
nino	20801
##ten	6528
##urbed	29595
##pie	14756
##mg	24798
φ	1176
##ホ	30248
identical	7235
##eers	22862
dozen	6474
airplay	15341
व	1335
dialect	9329
##ils	12146
fucked	21746
[unused72]	73
walk	3328
##trom	13887
philippines	5137
mercer	13081
##oning	13369
survive	5788
##ored	19574
##த	29921
phones	11640
polo	11037
##ante	12956
exchanging	25620
charles	2798
##tage	26702
cardinals	9310
breathing	5505
repeal	21825
channel	3149
pinnacle	26007
traveler	20174
ك	1293
[unused914]	919
1734	27367
vikram	29063
shareholder	18668
twitch	19435
long	2146
reverend	10547
gag	18201
っ	1663
##ast	14083
##gol	24141
##cast	10526
danube	16212
filed	6406
alias	14593
atlantis	16637
##仮	30287
##cope	16186
william	2520
albert	4789
verification	22616
[unused847]	852
integral	9897
temeraire	23611
rockwell	25235
membership	5779
fontaine	25749
##dley	14232
hairs	13606
##hedral	27310
neil	6606
kaplan	22990
documentation	12653
eucalyptus	27111
carmichael	23537
##保	30292
relation	7189
reorganization	17118
[unused266]	271
convince	8054
xvi	16855
northbound	20055
forster	21316
##।	29880
palm	5340
elevations	18166
hen	21863
##cheon	28099
medallist	28595
青	1975
frost	10097
saga	12312
baptism	18336
saturated	23489
geographical	10056
alexandra	10481
genres	11541
enacted	11955
rosenberg	21069
knelt	12804
pots	18911
biotechnology	20353
immediately	3202
burton	9658
motors	9693
oklahoma	5858
vinegar	29387
##ג	29790
christ	4828
jurassic	19996
madison	7063
research	2470
huey	29503
roe	20944
faithful	11633
headache	14978
date	3058
horizons	24484
##im	5714
spiral	12313
documents	5491
kuwait	13085
##lip	15000
manifest	19676
above	2682
clumsy	22902
reaching	4285
shoreline	17721
[unused183]	188
楊	1883
maple	11035
ox	23060
##llet	22592
##urable	23086
veil	15562
winds	7266
buddies	24115
bard	22759
vichy	29177
##cula	19879
##ev	6777
gaelic	11196
anthem	11971
mistress	10414
struggles	11785
collision	12365
##oge	23884
bluff	14441
borders	6645
practised	20439
preference	12157
jubilee	13078
samurai	16352
wilder	18463
symphonic	18957
##tral	21493
slashed	23587
short	2460
separate	3584
sunderland	15518
chilled	23362
1722	26689
##44	22932
zombie	11798
disciples	17102
woodstock	21028
communicate	10639
ₙ	1568
প	1367
rejected	5837
##а	10260
##stle	22516
welch	17939
secretaries	23660
tips	10247
wavelength	19934
costumes	12703
martian	20795
##ན	29965
frogs	17582
astonishing	26137
overlooked	17092
##nare	26148
insignia	16751
##d	2094
speedy	26203
michigan	4174
helen	6330
honduras	14373
fills	17469
animal	4111
kilometre	13214
bangor	21895
pricing	20874
holmes	9106
[unused841]	846
johns	11545
choosing	10549
[unused741]	746
damage	4053
##rien	23144
jealousy	14225
imagining	16603
catalan	13973
graphs	19287
₉	1556
415	24690
bunk	25277
##quisite	24871
structurally	29060
bust	13950
##ʔ	29705
##阝	30496
[unused628]	633
allowing	4352
arbitration	18010
originate	21754
##lidae	21595
##ener	24454
##2	2475
[unused422]	427
[unused20]	21
##an	2319
seventeen	9171
rumor	19075
bundles	26825
##olf	28027
flanks	23547
recipe	17974
filling	8110
ghostly	24407
conceal	19819
walton	14290
decline	6689
##mp	8737
slovene	18326
##尚	30356
1910	4976
stretched	7121
crisp	15594
##lak	23451
hood	7415
metacritic	14476
เ	1423
##vert	16874
cpu	17368
silvia	27827
##up	6279
kidding	12489
##otide	26601
##vance	21789
reins	19222
[unused959]	964
##tium	16398
suggest	6592
uphold	27329
robes	17925
kate	5736
focus	3579
gerry	14926
本	1876
##義	30462
mosquito	22529
metz	24424
1858	8517
equation	8522
shreveport	23740
variability	28436
encouraging	11434
reich	14365
banana	15212
bordered	11356
ᅲ	1480
angela	10413
subfamily	10946
460	17267
backup	10200
divinity	16968
substrate	16305
referring	7727
adaptations	17241
weaver	14077
supper	15264
impending	17945
refrigerator	18097
return	2709
adulthood	20480
variable	8023
detached	12230
categorized	20427
sober	17358
drilled	24311
[unused369]	374
ems	29031
##ied	6340
alcoholic	14813
ant	14405
ᅦ	1473
alternatives	15955
##zar	9057
assigns	24022
publicized	24928
lego	23853
teasing	12216
kiran	22403
darted	14051
rebounds	11049
necessary	4072
tops	13284
evacuate	22811
paradise	9097
monica	9018
considerably	9839
transplant	22291
rebirth	22785
会	1763
loves	7459
poets	9736
malaysian	11843
vic	10967
simmons	13672
##utnant	24620
tipping	25486
[unused312]	317
carries	7883
oakley	28876
expressions	11423
##ط	29828
foreigner	29524
herd	14906
remark	17674
rosemary	18040
wonderland	20365
105	8746
##urg	12514
##rain	21166
stalked	15858
[unused433]	438
narrative	7984
herds	28822
priced	21125
horizontal	9876
ʌ	1134
specifications	15480
subdivision	12572
##tma	29418
##liness	20942
conferred	15186
bodily	20445
appropriate	6413
duplicate	24473
fades	26784
flow	4834
epoch	25492
charges	5571
commemorated	19131
##ম	29906
painful	9145
guitarist	5990
barbie	22635
recommendation	12832
comeback	12845
tough	7823
sharply	9249
suspense	23873
plate	5127
##helm	24546
7th	5504
##《	30165
ʼ	1146
[unused573]	578
environmental	4483
prone	13047
##ags	26454
churning	26765
##ট	29895
[unused281]	286
agitation	22356
reacts	27325
hours	2847
frontman	21597
chevrolet	14724
post	2695
witnessing	24740
wu	8814
livelihood	24585
##ures	14900
distinctly	19517
legends	9489
diocese	5801
chun	20979
##rok	27923
ང	1427
romantic	6298
gibson	9406
stump	22475
sharon	10666
locally	7246
##stered	24167
স	1376
`	1036
croats	26222
denote	19090
receptionist	23775
1896	6306
hangar	18284
reign	5853
taut	21642
[unused619]	624
##open	26915
moritz	28461
##clops	28659
navarre	21260
##<	29629
passing	4458
veracruz	23741
rupert	14641
powerplant	19526
alyssa	26442
certificate	8196
##dna	28911
fielding	15452
hart	7530
##rogated	26565
worcester	12539
dynamics	10949
##rst	12096
astronomer	15211
shape	4338
invariant	23915
combo	25025
340	16029
patriots	11579
[unused144]	149
volatile	20606
medallion	22541
1804	13140
longer	2936
literally	6719
##ulu	20391
[unused219]	224
osaka	13000
genome	13458
verge	16079
labelled	18251
maud	21696
perfection	15401
rees	22131
outstretched	21059
cohen	9946
floors	8158
cheerleading	25721
breakers	24742
filter	11307
oldham	18285
##ᄉ	29997
[unused865]	870
motorsport	21044
does	2515
##風	30503
ferrer	28390
carole	24348
wang	7418
liver	11290
newsweek	26948
touched	5028
opponents	7892
apples	18108
[unused516]	521
shaping	20300
ashton	13772
eclectic	20551
##ɲ	29689
softball	12585
nomination	6488
wrong	3308
leader	3003
basement	8102
personally	7714
biting	12344
knocks	21145
##ulton	22145
plates	7766
downstream	13248
##cola	26289
associates	9228
lit	5507
teddy	11389
maori	12600
faa	17032
vineyard	18621
rus	22949
due	2349
stumbled	9845
prompt	25732
kiel	20963
casualty	19844
##ए	29850
habits	14243
##sell	23836
exploration	8993
ghetto	17276
helicopters	12400
wayne	6159
hysterical	25614
agnes	11166
offshore	12195
[unused559]	564
##rite	17625
##erative	25284
##enay	27727
##目	30444
virtually	8990
rooster	27681
1882	7131
adviser	11747
cutting	6276
##zione	20574
relevance	21923
basin	6403
digger	28661
franciscan	19420
tilt	17010
##ding	4667
dialogues	22580
∞	1601
insistent	29204
ct	14931
guitars	7334
gala	16122
confederation	11078
kanye	29270
##ま	30203
future	2925
coined	13279
republics	24822
opponent	7116
##レ	30260
dispose	27764
carrot	25659
labeled	12599
hub	9594
##彳	30371
incidence	18949
sorting	22210
hybrids	23376
traveled	6158
specialising	23315
ש	1266
census	2883
yun	22854
dioceses	26586
##cts	16649
differences	5966
cornelius	17354
diver	17856
blues	5132
newspaper	3780
bent	6260
shoots	11758
departmental	28912
staunch	26355
lies	3658
complaints	10821
pumpkin	25730
carver	20163
aachen	29093
accumulation	20299
forehead	6130
qualifying	6042
lobby	9568
##ও	29888
brew	24702
##edge	24225
republished	24476
accommodations	26167
wine	4511
correctional	20873
provence	19923
rag	17768
##ciency	29125
math	8785
winged	14462
calais	23116
[unused862]	867
nigerian	11884
ineffective	20694
prelate	26595
reciprocal	28309
pe	21877
harmon	25546
example	2742
codes	9537
##rnik	26437
mascot	13314
kicker	22652
carrie	13223
##ovsky	21983
##sus	13203
比	1890
gogh	26603
worse	4788
1997	2722
fuji	20933
##dre	16200
nebula	25677
her	2014
##ка	28598
[unused753]	758
argues	9251
packaged	21972
biodiversity	17194
sal	16183
deeply	6171
contradictory	27894
##raph	24342
crushing	14527
harmonica	16527
bro	22953
previously	3130
people	2111
rose	3123
[unused240]	245
bed	2793
induced	10572
reflective	21346
adversary	27248
[unused174]	179
divine	7746
discussed	6936
ob	27885
venues	9356
song	2299
restoration	6418
fundamental	8050
brit	28101
slits	29199
diffusion	19241
choreography	16967
prominence	12144
1661	24046
##alle	24164
endure	18094
sentenced	7331
indexed	25331
regular	3180
rescuing	23659
obstacle	18355
delegates	10284
edge	3341
տ	1236
bobbed	29579
##地	30328
##vill	26548
bipolar	29398
advocate	8175
severely	8949
fellow	3507
subsidies	21762
expressive	22570
spitfire	28323
rolls	9372
phil	6316
field	2492
dime	27211
weakness	11251
kirby	15129
##zell	24085
lonely	9479
massage	21881
monetary	12194
ய	1390
yields	16189
boardwalk	29496
[unused190]	195
jihad	24815
jedi	27273
hell	3109
notre	10289
cummings	20750
gasped	8535
shop	4497
filmmakers	16587
biographer	17121
##mart	22345
rented	12524
younger	3920
harris	5671
620	23612
##nse	12325
airports	13586
hitting	7294
ӏ	1218
##mis	15630
exhibits	10637
straightening	27508
permission	6656
-	1011
[unused145]	150
hermit	24308
movie	3185
fleeting	25085
programmers	28547
##gul	24848
[unused762]	767
subspecies	11056
computer	3274
##person	27576
queen	3035
attendants	26727
soon	2574
illegally	17800
bandages	27993
rivera	14043
abducted	20361
##door	23835
308	24232
reappeared	23040
actively	8851
[unused680]	685
צ	1263
chronic	11888
yearbook	24803
neurological	23130
ballot	10428
void	11675
internationale	21339
texas	3146
nico	19332
joy	6569
oddly	15056
benoit	21721
##met	11368
downs	12482
##→	30113
[unused392]	397
232	20666
##rah	10404
2010s	26817
grandpa	15310
findings	9556
andrews	9261
iris	11173
penned	17430
##lity	18605
skipping	25978
signal	4742
dressing	11225
scraping	23704
sacramento	11932
when	2043
##sc	11020
##kel	11705
disperse	28736
branding	16140
sts	8541
##ر	17149
1831	10937
##rana	16737
##ख	29852
##ese	6810
caste	14542
ben	3841
insist	18292
##弘	30369
database	7809
gypsy	16006
ascension	18071
whitish	16800
fis	27424
hillary	18520
tulane	27437
af	21358
consequence	9509
edison	17046
##cture	14890
##worth	5172
##iance	28335
trooper	28224
symphonies	29355
columnist	13317
##kari	20224
nailed	26304
character	2839
claremont	23716
liberated	19553
cries	12842
cool	4658
steered	23424
attending	7052
polynomial	17505
we	2057
│	1616
mistakenly	20706
fitting	11414
32	3590
drawing	5059
diploma	9827
eel	24315
##hin	10606
drafts	28967
gurney	25061
why	2339
utilize	16462
hospitalized	24735
##ace	10732
tale	6925
##tton	15474
চ	1356
##eum	14820
##oco	24163
willard	19138
reclaim	24104
¹⁄₂	18728
informs	15670
promenade	26815
gently	5251
##champ	25450
bender	25386
,	1010
sometimes	2823
neue	27713
opposes	29158
meta	18804
pleased	7537
##ifice	23664
brewery	12161
1900s	16430
##arns	23549
##氷	30421
children	2336
lorenzo	12484
##nessy	25441
1640	21533
allotted	23932
turmoil	17930
pomeranian	17717
theories	8106
mirror	5259
orb	19607
##pod	27633
##zzled	17269
ⱼ	1631
sunni	18883
##ove	21818
trophies	22236
☉	1622
##oux	28700
astonishment	23819
exemption	19621
descent	6934
ryan	4575
aimee	23551
destiny	10461
sequences	10071
##kata	29123
merge	13590
expert	6739
pts	19637
##fied	10451
caressing	25296
photographers	17008
allegedly	9382
kapoor	17129
##bh	23706
magna	20201
cheering	24867
zhejiang	26805
tolerant	23691
greer	25939
##aster	24268
1540	27536
ai	9932
##hoot	23416
##stan	12693
vastly	24821
donnie	28486
⟩	1630
ballroom	14307
husbands	19089
##hc	16257
rumours	19200
bulbs	25548
portray	17279
seen	2464
viable	14874
cyclists	21912
##hesion	21471
wnba	25554
##х	29750
chalmers	29069
dioxide	14384
lifts	13695
northwestern	7855
coarse	20392
rubin	20524
garage	7381
##ulated	8898
1762	20827
pinto	25066
strife	27865
##『	30169
answered	4660
louie	17438
[unused470]	475
unification	16905
vfl	13480
albrecht	25542
soothing	16684
nicely	19957
vip	21722
resulting	4525
goblin	22639
alistair	23752
##rata	14660
neon	16231
##eh	11106
lynch	11404
hears	14994
bellevue	26756
##ying	14147
commemorative	17524
[unused85]	86
federal	2976
bullying	18917
##ssler	23385
regulatory	10738
##ء	29815
sera	26358
characters	3494
que	10861
##lee	10559
poorly	9996
doesn	2987
whatever	3649
ra	10958
eerie	18823
bug	11829
unmarried	17204
commentators	15957
uefa	6663
handy	18801
##mac	22911
aston	14327
nuclear	4517
consistency	18700
bastion	26829
battalion	4123
minds	9273
rodents	28156
condensed	25011
karma	19902
##rington	17281
##flict	29301
faster	5514
applying	11243
vomiting	24780
planning	4041
##guchi	16918
calhoun	22982
##eles	26741
showtime	23811
silvery	21666
lexi	16105
comparative	12596
⊆	1611
formation	4195
lazy	13971
sprint	9043
hague	14575
flame	8457
icelandic	14024
cyclic	23750
##さ	30182
##strom	15687
toe	11756
त	1323
[unused854]	859
outlook	17680
elena	9060
blurred	18449
flair	22012
[unused885]	890
constituents	24355
trusting	19836
sex	3348
juliet	13707
dated	6052
terror	7404
kgb	25467
evolving	20607
choice	3601
ncaa	5803
pictured	15885
##olo	12898
punishment	7750
furnace	17533
##chester	25322
##ran	5521
##ゆ	30209
reprinted	13603
##ailing	29544
fates	26417
longitude	20413
bronze	4421
##sai	15816
bradley	8981
debuts	26740
293	26953
pilasters	26752
rewards	19054
##nburg	22642
rivalry	10685
managed	3266
attain	18759
duff	21019
##isms	22556
fashion	4827
##fia	22749
rann	26312
##gl	23296
mccall	25790
shoot	5607
[unused817]	822
##ico	11261
peanuts	27613
cease	13236
potomac	18854
unpopular	19657
##ias	7951
convection	23849
resultant	28573
telecommunication	25958
ymca	26866
elvis	12280
hearts	8072
swayed	20122
navigation	9163
[unused151]	156
eighteen	7763
considerations	16852
adequately	23613
garment	19002
##trick	22881
##lassified	24938
atv	29108
##ש	29812
untitled	24819
##ا	25573
albanian	9408
higgins	13466
parliamentary	5768
##ees	10285
##oga	18170
め	1680
employs	13495
49ers	18156
mart	20481
pastures	24813
summons	24814
baird	20866
kellogg	26129
controlling	9756
investigate	8556
dorchester	27252
bn	24869
##ψ	29738
memphis	9774
cavendish	23570
##sta	9153
belgrade	10291
downward	14047
mort	22294
abyss	22159
zealand	3414
##ath	8988
concludes	14730
blackburn	13934
outnumbered	21943
bonded	20886
cypress	22183
pudding	29593
##logie	27095
kraft	26680
##⁄₄	27392
madhya	20841
##fort	13028
granting	15080
bacon	11611
##mler	18602
shaded	25273
uppsala	25720
##filtration	28674
7	1021
jobs	5841
etienne	16821
fae	17282
##iter	21646
clears	28837
barriers	13500
barnsley	25139
thoughts	4301
天	1811
##あ	30172
##khand	25910
##tism	17456
cloud	6112
haji	28174
frey	20068
highlight	12944
##falls	28067
##rix	17682
retribution	25928
cote	17155
##青	30501
blake	6511
##oza	25036
afterlife	25115
regal	21279
seated	8901
##zzling	20838
copeland	27303
homes	5014
racetrack	28435
imagine	5674
պ	1233
##ett	6582
##ben	10609
##tics	14606
##lent	16136
flown	10583
appreciate	9120
bon	14753
wallet	15882
welcome	6160
chad	9796
##tist	16774
rufus	18316
citrus	20418
footprints	24629
baggage	20220
##peration	29487
tidal	15065
positioning	19120
土	1801
tun	27112
##lord	19980
indianapolis	9506
melville	20154
##☉	30149
##polis	17699
sincere	18006
56	5179
iberian	21988
carleton	22273
far	2521
tightening	18711
isabel	11648
unique	4310
##working	21398
misconduct	23337
version	2544
##fp	22540
varies	9783
dire	18704
##辶	30482
##zza	20715
269	25717
canning	24549
sherry	22268
bidding	17534
戸	1857
##ར	29970
し	1657
月	1872
decades	5109
hypothesis	10744
##power	11452
leyte	27214
artillery	4893
hopping	26397
anime	8750
scholarships	15691
##₄	17004
ceased	7024
congresses	24460
macro	26632
ashes	11289
prosperous	18241
walden	24834
greenhouse	16635
inadvertently	21089
##ants	11390
michaels	17784
##vious	24918
absorbed	9063
capt	14408
newest	14751
[unused400]	405
flashlight	15257
®	1079
水	1893
lesions	22520
##ტ	29989
[	1031
##mental	26901
jayne	24408
tape	6823
##rnet	26573
chorale	26561
##gpur	25758
parochial	28773
[unused872]	877
##wark	24298
##shu	14235
italics	19408
books	2808
manufacturer	7751
roles	4395
##ered	6850
laughs	11680
catalog	12105
disappearing	14489
curtain	11002
rib	19395
diva	25992
reworked	27575
sprung	22057
skepticism	27936
rebels	8431
##zier	21548
kv	24888
##zed	5422
throw	5466
convenient	14057
##ration	8156
##mount	20048
tidy	29369
froze	10619
[unused940]	945
medley	13863
cancellation	16990
chores	27091
marley	20326
affectionately	28734
ratio	6463
hopped	17230
##dh	16425
##⁷	30076
truncated	25449
257	24368
intimidated	28028
offense	10048
apologies	25380
##ok	6559
weekdays	19759
dimension	9812
louisville	11577
##systems	29390
##տ	29783
##華	30468
weapons	4255
pits	14496
scrolls	23074
tricky	24026
age	2287
ain	7110
##weed	18041
opened	2441
textiles	18762
jem	24193
##ylus	18871
##eak	25508
aegean	27198
[unused706]	711
##堂	30331
##cious	18436
49th	25726
exquisite	19401
undergone	17215
brunei	18692
brown	2829
fallout	23902
adrenaline	14963
bal	28352
momentum	11071
া	1378
preschool	23655
##চ	29892
galician	28830
##ions	8496
european	2647
lana	16554
##pressing	24128
alfonso	13591
be	2022
mixed	3816
[unused915]	920
sites	4573
vector	9207
training	2731
terribly	16668
ang	17076
chariot	23507
##xy	18037
60th	20928
4	1018
sonny	13584
##pire	20781
hose	21290
chains	8859
blonde	9081
removing	9268
disappeared	5419
manor	6952
##iam	25107
1846	9244
turk	22883
adele	17623
boosted	28043
choreographer	17334
##leaf	19213
##≥	30136
##mond	11442
kazakh	25907
softness	27012
##iferous	23930
unopposed	17123
insertion	23851
decide	5630
finish	3926
divided	4055
fanny	17813
archived	9749
defaulted	17265
playback	18245
jump	5376
decorative	11584
##liest	21292
shift	5670
##vot	22994
soundtrack	6050
enthusiasm	12024
oil	3514
uc	15384
2009	2268
vc	18315
glances	13021
exchanges	15800
chicks	20649
nature	3267
fabrication	25884
beaufort	23622
##uce	18796
schoolhouse	26301
climates	24734
vivo	24269
[unused787]	792
1812	9842
therapist	19294
things	2477
##tf	24475
##5	2629
##lewood	26580
##ᄑ	30004
structures	5090
profile	6337
birthday	5798
mohammad	12050
earning	7414
usage	8192
##num	19172
himself	2370
coinage	25396
##nikov	22576
##idad	27893
香	1979
villains	16219
lectures	8921
##ʸ	29710
##gon	7446
##ischen	24488
##ος	15297
cpi	28780
##eo	8780
arrange	13621
nicaragua	15448
→	1585
lincolnshire	16628
##tler	25091
spiked	25362
sediments	20476
increasingly	6233
##page	13704
##カ	30226
avatar	22128
antarctic	10227
techno	21416
vogel	27063
reward	10377
ᄏ	1466
emerging	8361
whoever	9444
union	2586
feud	13552
##cycle	23490
courage	8424
comprises	8681
slump	28702
inhabitants	4864
##ˈ	29715
horns	11569
永	1896
[unused134]	139
feature	3444
kings	5465
##child	19339
1716	28204
narrated	17356
commentaries	21241
mirrored	22243
operations	3136
sank	7569
exploit	18077
diet	8738
loch	14941
beforehand	25828
proponents	20401
incumbent	7703
confirmed	4484
##ype	18863
##vre	12229
growl	13349
კ	1446
leo	6688
meditation	13804
##fare	17883
thailand	6504
##uron	21017
ferrari	13632
##ts	3215
nak	17823
##uno	27819
major	2350
##№	30106
##orio	27416
crazy	4689
vocals	2955
ramon	12716
celia	18020
honey	6861
##lot	10994
##ander	12243
huang	15469
plata	19534
apes	27754
ana	9617
harshly	21052
ষ	1375
henan	27837
beau	17935
heart	2540
pepper	11565
##lice	13231
complete	3143
[unused53]	54
##ino	5740
reminder	14764
gdp	14230
##tyn	25680
##uddin	17375
reborn	24910
nervous	6091
anaheim	20835
student	3076
##ク	30228
⁹	1543
adoptive	24787
succumbed	25642
elimination	9614
##uating	24133
##nais	28020
reasons	4436
obedience	22645
stories	3441
##ik	5480
regulators	25644
enforcing	27455
abuses	21078
##会	30289
proprietor	21584
drove	5225
ancient	3418
offended	15807
luckily	15798
secrecy	20259
assyrian	19950
##ler	3917
steps	4084
172	18253
satire	18312
actually	2941
protects	18227
perspective	7339
315	22904
ᄉ	1461
organized	4114
professors	12655
nipple	14298
##dorff	26559
fated	27442
cong	26478
##llation	20382
bluegrass	21286
preoccupied	23962
misunderstanding	24216
sierra	7838
trends	12878
councillors	13189
haley	16624
awakened	20256
swirling	16499
dia	22939
อ	1421
##lysis	26394
sheila	15062
presenting	10886
##ι	18199
##cie	23402
2000s	8876
η	1161
completed	2949
merged	5314
broader	12368
850	15678
io	22834
generation	4245
##evich	16277
emphasize	17902
wreath	29586
##サ	30231
postponed	14475
##ide	5178
meet	3113
skipper	23249
せ	1659
axes	19589
extensive	4866
encouragement	15846
patsy	25382
statutory	15201
granada	16553
##nden	25915
onto	3031
##ains	28247
depths	11143
peasant	14539
##lder	16502
303	19988
scrub	18157
disqualified	14209
autopsy	24534
compromised	20419
johan	13093
invisible	8841
271	25103
beautifully	17950
fundraiser	28536
bernstein	18862
camera	4950
##ouin	25058
adler	17969
runners	7190
recognition	5038
##kou	24861
lennox	21060
##otted	26174
firm	3813
jakarta	14426
consciously	24447
whilst	5819
survivors	8643
roderick	28326
ale	15669
lee	3389
pulling	4815
banned	7917
##sar	10286
reversed	11674
##pton	15857
password	20786
ecumenical	23540
##ffie	29055
##ᵀ	30031
##phobic	20200
kenyan	20428
##iction	28097
sailed	7434
1965	3551
ipad	25249
persians	27229
[unused80]	81
##rar	19848
121	12606
##son	3385
reason	3114
##tone	5524
67	6163
demolished	7002
ceremonial	12961
deserves	17210
configurations	22354
details	4751
umar	27981
schleswig	21173
economists	22171
##rce	19170
[unused539]	544
olive	9724
signs	5751
[unused737]	742
##mony	22847
sarcasm	20954
aftermath	10530
lemon	14380
##bolt	22803
mutants	23892
##ப	29924
morale	19292
bree	21986
joe	3533
drinks	8974
doubted	12979
nigel	12829
##rio	9488
column	5930
classification	5579
[unused105]	110
##uba	19761
##thic	23048
occurring	10066
how	2129
arte	16185
threat	5081
##η	24824
stain	21101
obligatory	26471
##unds	26698
[unused230]	235
troops	3629
rams	13456
##schaft	26527
coconut	16027
[unused168]	173
270	13756
regulated	12222
sid	15765
stare	6237
##च	29854
eta	27859
##train	23654
##clave	23650
##borough	10235
wilfred	26026
wherever	11210
duke	3804
francesco	11400
₃	1550
##ₛ	30098
2nd	3416
rice	5785
capped	13880
trump	8398
lordship	20698
lyons	16642
gust	26903
1818	12094
stucco	27443
polka	29499
reasonably	16286
emigrated	11367
##sb	19022
dating	5306
heck	17752
ely	20779
strapped	18019
##李	30403
roger	5074
chalk	16833
regarded	5240
point	2391
about	2055
1871	7428
giggled	15889
vegetation	10072
productions	5453
philipp	20765
defect	21262
metadata	27425
housing	3847
blizzard	21689
##ᵢ	19109
##pel	11880
hogan	14851
##kot	23342
donna	10972
##प	29864
sensitive	7591
bachelor	5065
view	3193
sam	3520
favors	21191
outing	26256
incoming	14932
ireland	3163
molecular	8382
[unused56]	57
##made	21565
magistrates	23007
wholesale	17264
remnant	19614
mysterious	8075
す	1658
dramatic	6918
game	2208
unincorporated	7754
##ical	7476
fishermen	16532
barbecue	26375
postgraduate	15438
anthropological	28395
droplets	27126
magazine	2932
frowning	14587
diagnostic	16474
##etti	18319
[unused552]	557
fitch	26062
temperament	26270
triggers	27099
##laus	28128
ray	4097
honour	6225
‰	1530
rescues	26001
tagged	26610
raf	7148
worry	4737
ken	6358
woolf	29572
obtaining	11381
##yr	12541
rangers	7181
enrichment	27226
hq	16260
riff	24808
unclear	10599
readily	12192
196	20035
atoms	13353
sideways	12579
streamed	18498
emperors	19655
eps	20383
##pled	21132
usher	20774
impacts	14670
lighting	7497
centimetres	13935
liturgical	19246
claudio	19569
##sun	19729
balkans	19733
♦	1626
suit	4848
##आ	29848
nearest	7205
northeastern	8763
##odes	19847
##eil	24359
##isan	29196
recorder	14520
madly	29179
charge	3715
dunkirk	29467
##rsten	19020
possession	6664
oak	6116
null	19701
epidemic	16311
audio	5746
steward	17946
dressed	5102
西	1947
enemy	4099
introductory	23889
archipelago	13888
rumbled	22257
designer	5859
exchanged	10573
##unciation	24101
haiti	12867
injection	13341
##氏	30417
##kyu	23076
macy	20914
এ	1351
morales	17103
affinity	16730
charitable	11128
decisive	13079
posthumously	12770
sm	15488
yearly	12142
あ	1646
summon	18654
farrell	16248
ip	12997
radical	7490
games	2399
madonna	11284
##uche	19140
encryption	21999
##dc	16409
warm	4010
psychiatric	13691
locker	12625
##aceae	18339
252	22898
camille	16675
cretaceous	18122
keel	19602
##oses	27465
45	3429
captive	12481
gr	24665
##nant	16885
behind	2369
##iii	28954
##para	28689
##aru	15728
stellar	17227
312	21036
reconciled	28348
hut	12570
##han	4819
sanford	21153
cinematography	16434
illuminated	14640
intervene	18793
skirmish	27264
miner	18594
identification	8720
1600	14883
announces	17472
operative	12160
worried	5191
reference	4431
[unused900]	905
tanzania	11959
slamming	15209
equals	19635
crypt	19888
increasing	4852
205	16327
॥	1345
keeping	4363
spartak	28560
wedding	5030
##ρ	29732
1707	25029
defender	8291
く	1653
petty	11612
attorney	4905
alert	9499
1754	22593
constraint	27142
1683	27414
jacket	6598
##cal	9289
prescott	20719
awaited	19605
unemployment	12163
intellectual	7789
suppliers	20141
wi	15536
registry	15584
##eding	17819
435	24125
[unused654]	659
##dd	14141
##dai	21351
uae	17641
romans	10900
##⇒	30119
activity	4023
##vel	15985
compare	12826
install	16500
##time	7292
cultivation	13142
##ny	4890
theorist	24241
scar	11228
spice	17688
rave	23289
caracas	21675
privatization	23966
condoms	29094
teach	6570
partnered	12404
genoa	15771
responsible	3625
##iste	27870
##sey	7952
recaptured	23838
swings	18755
undergoes	29129
stranger	7985
##ov	4492
stan	9761
caroline	7981
styled	13650
insulation	25710
adaptive	19293
faso	22773
distribute	16062
hereditary	14800
##ー	30265
seduce	23199
willie	9893
"	1000
reverse	7901
fiance	19154
anatomical	28141
1996	2727
obvious	5793
##भ	29866
papers	4981
##oting	20656
##buck	24204
propaganda	10398
[unused450]	455
graves	9729
sorted	19616
worthy	11007
axial	26819
leverage	21155
breached	25769
”	1524
阝	1970
brooding	28902
abdul	10298
[unused724]	729
earthquakes	17932
##onic	12356
amtrak	20208
falcon	11684
911	19989
k	1047
ultra	11087
magician	16669
yukon	19898
rhyme	20622
edna	21051
signaling	14828
##ನ	29936
vans	21994
dumping	23642
[unused592]	597
hua	23064
##200	28332
andersson	28643
cosmetic	25536
stripes	13560
##世	30271
##lli	6894
valentine	10113
##athlon	17563
cyprus	9719
[unused395]	400
autonomy	12645
ahl	18347
buyer	17634
356	27509
##bahn	16052
dortmund	23912
##gar	6843
edict	24754
roast	25043
##neas	26737
mustered	21900
cheered	25471
[unused292]	297
kitty	14433
―	1518
ь	1207
pm	7610
cats	8870
brood	25565
numerous	3365
stake	8406
darkest	23036
##nsed	27730
nora	12306
##hab	25459
antarctica	12615
artists	3324
##ved	7178
overland	21400
straight	3442
guiana	23568
anytime	15933
popularized	20339
##usly	27191
wagons	14525
regularly	5570
##lta	24458
met	2777
coldly	24745
nottingham	11331
rama	14115
oclc	12258
dung	29328
zu	16950
jo	8183
privateer	26790
submarine	6982
drops	9010
edwin	10049
##asurable	28329
##sir	29481
##dance	25514
li	5622
thickness	14983
bali	20222
1811	13086
voyages	21993
112	11176
minus	15718
hadley	21681
singles	3895
[unused873]	878
clad	13681
600	5174
liberia	18039
##ressed	16119
spokane	21878
ticked	26019
weighted	18215
oversees	22558
baghdad	13952
1767	21502
cisco	26408
mapping	12375
##hl	7317
crisis	5325
substrates	23725
corporate	5971
russo	17023
ak	17712
usb	18833
700	6352
sock	28407
##pop	16340
##lho	28061
synth	24203
##ᄏ	30002
##gle	9354
liability	14000
disorder	8761
opinion	5448
slaughtered	23044
##忄	30376
avoiding	9992
controversies	25962
declan	16494
confirm	12210
creators	17277
grassroots	23299
prima	21111
##take	15166
nominees	17853
reductions	25006
puget	27879
##dication	25027
recreated	29414
profession	9518
compelling	17075
liquids	26820
prostitutes	20833
pokemon	20421
colossal	29523
origin	4761
mock	12934
kyrgyzstan	23209
denial	14920
##onia	12488
structured	14336
guild	9054
disappointing	15640
influencing	25870
##routed	25849
lebanon	8341
mastered	15682
##久	30274
##⁶	30075
donation	13445
outskirts	12730
autonomous	8392
rb	21144
saying	3038
embracing	23581
packing	14743
д	1184
stabbed	13263
sophisticated	12138
colombian	13598
biomass	28148
##mism	26725
bride	8959
placed	2872
##間	30495
heaven	6014
like	2066
customs	8205
eleventh	11911
elections	3864
gp	14246
bose	21299
up	2039
storyline	9994
asher	17243
kills	8563
mitsubishi	19695
worst	5409
electronics	8139
##⊆	30138
sailors	11279
sadly	13718
temptation	17232
visuals	26749
rosalie	29564
corp	13058
mazda	25286
pune	16920
rbi	16929
feared	8615
ahead	3805
witness	7409
universally	21186
dispersal	27602
puppy	17022
legislator	22964
flush	13862
dilemma	21883
1854	8421
came	2234
lockheed	17646
ワ	1736
postage	22981
comprehend	22346
##ciation	23247
vivid	14954
##uni	19496
zones	10019
drawers	22497
##江	30423
friends	2814
cleric	29307
##sant	22341
provision	9347
##pheus	22809
vox	29450
strait	11195
sandstone	11694
bleeding	9524
presently	12825
##ect	22471
[unused106]	111
canteen	26449
originates	16896
diverted	18356
##lver	26229
horticultural	26235
quota	20563
initial	3988
nominations	9930
commonwealth	5663
marble	7720
jasper	14791
##85	27531
##ceptive	28687
division	2407
##miento	28883
tunes	13281
##gu	12193
nightly	22390
fu	11865
linden	22066
##dek	24463
from	2013
mountain	3137
jaipur	28355
explorer	10566
##ths	26830
236	23593
deter	28283
seem	4025
##lberg	22927
pdf	11135
寺	1827
wrapped	5058
exhibiting	22922
army	2390
ares	23631
johnny	5206
hemisphere	14130
##atory	14049
flexibility	16991
guessing	16986
cannons	17138
fears	10069
1932	4673
rancho	18123
χ	1177
assembly	3320
regan	16964
clinton	7207
eurovision	12714
204	19627
1746	24507
##س	29824
codex	15763
##ο	29730
betrayal	14583
shadowy	22801
gal	14891
##lit	15909
trek	10313
wealthy	7272
brody	19631
lowering	13845
removal	8208
sending	6016
remake	12661
matteo	24713
##क	29851
seriously	5667
अ	1311
superman	10646
ⁱ	1537
prem	26563
whites	12461
howell	18473
##mel	10199
distracted	11116
flanagan	26558
marko	28003
packs	15173
##ye	6672
{	1063
mother	2388
seemed	2790
##ota	17287
flea	26735
templar	27850
engulfed	24692
seton	28796
c2	29248
assumes	15980
cooperate	17654
##語	30476
competition	2971
##burgh	15496
freddie	15528
towel	10257
ᴺ	1494
felicity	27357
colbert	23928
##rder	26764
underneath	7650
leading	2877
movies	5691
##dicate	16467
trip	4440
550	13274
mcnamara	28340
1914	4554
respectable	19416
[unused313]	318
##ʎ	29701
镇	1966
rode	8469
##nos	15460
##元	30295
realities	22213
prices	7597
banished	21319
filmfare	25648
motorola	29583
agile	29003
prevented	8729
montreal	5548
superfamily	24169
termed	12061
clip	12528
##dhi	19114
butcher	14998
[unused431]	436
kala	26209
idol	10282
##cuting	29163
utmost	27917
guggenheim	20402
mister	12525
comedy	4038
थ	1324
factory	4713
depart	18280
dip	16510
mendez	28950
ninth	6619
[unused607]	612
undo	25672
modifications	12719
##cing	6129
403	28203
catering	18640
supervisor	12366
ashok	28916
ᄋ	1463
injuries	6441
elizabeth	3870
bern	16595
##ma	2863
leaned	4016
patience	11752
古	1789
declared	4161
##mith	19864
[unused460]	465
judge	3648
mask	7308
[unused344]	349
robertson	9923
socks	14829
hilly	22800
artistic	6018
dunes	17746
easier	6082
ives	23945
realm	8391
decade	5476
reformer	24767
berlin	4068
gerard	11063
hardware	8051
celebrations	12035
##uto	16161
ridges	16386
permanently	8642
label	3830
##জ	29894
moss	10636
gems	20296
##ᆯ	30022
printers	23557
clancy	24530
schemes	11683
rat	9350
##hesive	21579
##ע	29805
pronounced	8793
beige	28799
boxing	8362
emergence	14053
whitman	21311
kendra	13812
wits	25433
foam	17952
wiggled	26750
க	1382
sample	7099
[unused241]	246
ting	28642
[unused839]	844
management	2968
asturias	26798
impressive	8052
gentle	7132
compiler	21624
hospitality	15961
pounding	9836
damascus	16094
[unused617]	622
##ching	8450
##aint	22325
outsiders	22361
##lateral	28277
##貴	30479
leonardo	14720
##vity	24872
diocesan	18680
brutal	12077
##gold	21270
poems	5878
adolescents	25947
barrie	24953
intra	26721
corsica	27047
peacock	18931
betty	9306
nuts	12264
uprising	10138
disciplines	12736
stefano	19618
domenico	18638
sparse	20288
delightful	26380
entirety	15700
pencil	14745
attested	18470
nausea	19029
lot	2843
##dorf	11592
corn	9781
##gnan	28207
surreal	16524
tha	22794
##morphism	19539
ecuador	10378
cope	11997
##kowski	15449
##tase	18260
congress	3519
doubled	11515
andreas	12460
herman	11458
html	16129
##ং	29882
peg	25039
nato	10079
beit	28236
##ilised	21758
pierced	16276
externally	27223
ensemble	7241
destroying	9846
scandal	9446
expedition	5590
##ttle	26328
boil	26077
##irus	26013
bragg	23678
##dian	11692
turbulent	22609
rings	7635
fifa	5713
reinstated	18671
##ttal	28200
doing	2725
mate	6775
side	2217
approaches	8107
finest	10418
nadu	10703
##tad	17713
courageous	26103
orchestra	4032
sentences	11746
chances	9592
retrospective	15354
##over	7840
coefficient	19064
[unused237]	242
apr	19804
untouched	22154
extremes	28800
joyce	11830
sorry	3374
preparation	7547
considers	10592
bao	25945
blasted	18461
chinese	2822
mallory	20468
##urian	29091
localized	22574
[unused423]	428
waterfront	16317
whereas	6168
talmud	24380
spots	7516
##kin	4939
##yt	22123
267	25491
provisions	8910
##و	29836
systems	3001
confront	14323
ए	1314
voyage	8774
[unused509]	514
indicted	21801
mb	16914
thoroughbred	18359
dock	8946
next	2279
amc	21962
[unused749]	754
telecommunications	12108
maintained	5224
woodland	11051
projective	27473
keeps	7906
entertained	21474
development	2458
condemnation	26248
cullen	19925
##tt	4779
payload	18093
valentin	24632
ท	1412
##4th	26724
sits	7719
overlook	27590
mixes	21109
法	1901
airways	13095
focused	4208
zaragoza	25744
##pid	23267
crawley	28854
legitimate	11476
##ᆫ	30021
mr	2720
##gal	9692
96	5986
freed	10650
malaya	19979
##vere	28943
##龍	30508
ejected	22607
bengali	11267
summer	2621
₅	1552
seduction	26962
##22	19317
trim	12241
hari	21291
kenya	7938
kyoto	15008
mccartney	15320
##vsky	15904
climax	14463
##mite	23419
discourse	15152
swedish	4467
slogan	14558
adept	26398
cheese	8808
glaring	16124
barbarians	28056
charlie	4918
##ile	9463
ो	1343
inspector	7742
wendy	12815
odd	5976
trey	14826
front	2392
performs	10438
assessment	7667
quantum	8559
embarrassing	16436
##tila	26065
##ili	18622
##ors	5668
rune	23276
padres	21577
seventh	5066
##tres	19168
ratings	8599
bricks	14219
investment	5211
cruiser	10844
##镇	30492
revive	17995
salsa	26509
##ე	29978
##eno	16515
deposition	19806
##mate	8585
##∞	30128
summit	6465
##riated	25475
rash	23438
1959	3851
fencing	15962
##att	19321
kern	22762
identity	4767
brighter	16176
expect	5987
##ote	12184
menacing	24060
##mont	9629
fluent	19376
limit	5787
watered	27129
position	2597
patrice	29527
android	11924
1904	5692
vaughn	18220
xiii	15031
welcoming	18066
##fell	23510
##hn	7295
equal	5020
[unused484]	489
##aer	27867
ᵀ	1495
mist	11094
enduring	16762
disc	5860
composure	23619
collectively	13643
dq	25410
jumping	8660
##ych	17994
expects	24273
tripoli	21841
migratory	22262
pirates	8350
##nagar	14346
##ility	15148
ᅥ	1472
sherman	11011
fading	14059
tsunami	19267
thanked	15583
##mun	23041
1760	19096
handler	28213
##edd	22367
##horpe	22044
looking	2559
occur	5258
ugly	9200
secretive	28607
rags	26346
footing	22849
##dberg	25190
dauphin	29102
replicate	28024
understood	5319
##media	16969
decca	21079
easy	3733
retirement	5075
44	4008
survey	5002
中	1746
ი	1445
seventeenth	15425
##roid	22943
physical	3558
mickey	11021
##nell	9091
luzon	21622
manga	8952
azure	24296
extinguished	27705
shrewsbury	18174
dfb	28894
showdown	24419
administer	21497
brad	8226
wilmington	17025
##ptic	20746
##ض	29827
vault	11632
got	2288
alto	10766
##jun	19792
[unused889]	894
##san	8791
231	20304
twigs	27964
###	29614
resided	12427
just	2074
##gg	13871
peers	12746
##ppa	13944
section	2930
pornography	19378
sore	14699
munro	20923
tchaikovsky	25900
marriott	26490
sevens	19463
trolls	27980
##ettes	26592
##atin	20363
elaine	15263
[unused766]	771
past	2627
shown	3491
70	3963
[unused115]	120
write	4339
##lam	10278
##ি	29915
arm	2849
polls	14592
##ワ	30262
##ipe	15457
pathways	16910
heights	7535
mercedes	10793
walsh	11019
##qua	16211
##pta	22799
##御	30373
ottoman	6188
soloists	27516
##bourg	20431
spin	6714
##fide	20740
liturgy	21176
bray	19743
american	2137
##hid	27511
coming	2746
mani	23624
132	14078
babu	20948
##gging	12588
eliminating	15349
knesset	27899
eisenhower	16551
cypriot	18543
10th	6049
convictions	20488
category	4696
lowest	7290
resurrected	23053
##⊕	30139
amiga	24126
barrister	19805
establishments	17228
rumble	15658
宿	1826
##loid	27710
40th	16541
newsletter	17178
populace	22508
colloquially	23992
##izan	27334
##ム	30251
##sed	6924
stallion	19122
gray	3897
##oya	18232
their	2037
[unused58]	59
##qa	19062
cheat	21910
##eta	12928
fe	10768
azores	28320
announce	14970
knees	5042
monitored	17785
lecturer	9162
capabilities	9859
researcher	10753
salisbury	13817
upstream	13909
graders	23256
pantry	27796
cut	3013
rodriguez	9172
##cine	16567
[unused377]	382
##oons	27174
electromagnetic	17225
scholastic	24105
1759	21667
retailers	16629
##berry	9766
outfit	11018
neoclassical	22657
##eet	15558
tentacles	24719
##sty	21756
purchased	4156
giovanni	9136
distillery	24870
observed	5159
boxes	8378
##dle	10362
silicon	13773
##ow	5004
bows	21207
squash	18794
administration	3447
depends	9041
study	2817
substitute	7681
kilometers	7338
deluxe	15203
sweeps	26981
linear	7399
カ	1700
detector	19034
£	1069
fl	13109
guatemala	11779
##sso	24137
je	15333
dinosaurs	18148
coa	28155
receiver	8393
intended	3832
genocide	14052
##oj	29147
##mmon	24521
conceptual	17158
hardship	26479
entire	2972
tucking	25056
[unused961]	966
entirely	4498
ج	1275
realised	11323
undercover	16382
carrier	6839
##nc	12273
1720	23535
seizing	24681
##ima	9581
##ष	29873
gingerly	26961
malacca	28481
turbo	15386
stein	14233
sexual	4424
foil	17910
shame	9467
ま	1677
[unused196]	201
haired	10681
recognised	7843
##hing	12053
bolivia	11645
frankly	19597
reelected	20847
clemson	25906
clauses	24059
##ites	7616
hog	27589
regimes	25228
transports	19003
crew	3626
commemorating	20646
hoax	28520
##oof	21511
gem	17070
##খ	29890
pollard	25513
lazarus	23623
prepares	20776
##mal	9067
electrode	28688
##+	29622
rovers	9819
rescued	10148
##us	2271
og	13958
rd	16428
meath	26856
plaintiffs	23953
modern	2715
silence	4223
##θ	29725
antonio	4980
topics	7832
lure	17256
feet	2519
noteworthy	19144
photos	7760
distal	29333
scraped	20378
governmental	10605
decision	3247
unpublished	19106
##ن	15915
bump	16906
fragile	13072
κ	1164
火	1906
parties	4243
##burg	4645
##fully	7699
verses	11086
nationalities	24904
ld	25510
earth	3011
tigers	7600
wandering	13071
substantially	12381
recognizes	14600
coast	3023
##elli	13348
comet	15699
##oud	19224
tracts	22069
canals	17263
discussion	6594
generates	19421
strolled	20354
##24	18827
inhabit	21490
goldsmith	22389
二	1752
maggie	8538
asia	4021
saves	13169
founders	8759
hoffman	15107
sipped	17735
hooks	18008
churchyard	19812
∂	1592
academy	2914
calf	19134
mu	14163
pawn	19175
targets	7889
dictatorship	18944
recession	19396
1802	13515
##h	2232
##dridge	21482
halle	19769
davidson	12017
gut	9535
##∧	30129
wage	11897
lowlands	26411
[unused916]	921
mix	4666
°c	6362
stimuli	22239
disposition	22137
peeked	18652
submarines	12622
mommy	20565
intimidation	28973
##cky	17413
##brand	23544
##eiro	17166
[unused588]	593
yue	27163
whimper	28544
auditor	20964
trade	3119
lei	26947
proceeds	10951
robust	15873
restore	9239
inherently	26096
##belt	21561
austria	5118
pushing	6183
viewpoint	21386
[unused952]	957
stolen	7376
##馬	30506
signed	2772
cheyenne	17778
sykes	23531
ス	1707
1	1015
##ku	5283
ignition	17446
##rist	15061
prints	11204
intuition	26406
##down	7698
central	2430
absurd	18691
raced	8255
##imo	16339
[unused976]	981
renovation	10525
##ced	11788
twain	24421
38th	22051
rebellious	22614
fragments	10341
outburst	27719
supply	4425
capsule	18269
react	10509
producer	3135
##北	30307
more	2062
aching	14750
beech	21760
depicts	11230
latter	3732
pee	21392
##oli	10893
169	18582
क	1315
wat	28194
obsidian	29042
##セ	30234
bremen	16314
skater	18815
##pg	26952
mandate	11405
yelled	7581
selecting	17739
##ж	29743
grid	8370
indirect	14958
shipped	12057
##md	26876
additionally	5678
##aurus	17342
thigh	10120
##cave	27454
##jali	28948
新	1862
fc	4429
promoters	26512
psychologists	25428
janeiro	11497
surveys	12265
##幸	30367
##uka	15750
extensively	8077
1956	3838
[unused365]	370
inward	20546
[unused689]	694
pets	18551
abduction	23415
##roids	29514
rapid	5915
[unused481]	486
[unused113]	118
##eft	29218
delta	7160
abroad	6917
types	4127
##iche	17322
##o	2080
abrupt	18772
lips	2970
郎	1958
mechanics	9760
gma	20917
jesuits	20297
barrier	8803
vilnius	20513
##fest	14081
weaving	15360
gills	29468
pleistocene	25080
##東	30405
##the	10760
##sau	23823
hey	4931
lila	19286
dc	5887
namesake	17283
limp	14401
##rosis	29166
headline	17653
##cho	9905
symbolism	22050
##shaw	17980
evergreen	16899
al	2632
botswana	19414
reynolds	9579
counties	5721
1699	28718
fourier	26899
bermuda	13525
predictable	21425
sliced	15920
atlas	11568
priest	5011
barangay	20937
majestic	22337
mma	21021
organisms	11767
bt	18411
segunda	19071
elle	15317
##user	20330
prior	3188
passengers	5467
##sco	9363
blank	8744
belgarath	21256
re	2128
patrick	4754
kickoff	25233
44th	26409
[unused582]	587
scala	26743
##名	30321
cyrus	16123
##venor	26806
秋	1929
grab	6723
imports	17589
byu	23471
monumental	15447
welded	29014
wreckage	21056
torso	15190
##drive	23663
notwithstanding	26206
ordination	18129
##方	30389
sound	2614
correct	6149
bavaria	11606
band	2316
wetlands	16630
ₗ	1566
who	2040
##load	11066
proclamation	16413
##ass	12054
[unused600]	605
charged	5338
estimates	10035
1645	26081
esq	25325
##wyl	27740
bandwidth	20235
timber	7227
##山	30357
mason	6701
[unused657]	662
beckett	20599
highest	3284
benny	11945
caspian	25893
千	1784
spouse	18591
stricken	16654
pak	22190
cochrane	22329
pilot	4405
patna	29565
linux	11603
##bana	19445
audience	4378
tremor	27734
spear	12341
##trip	24901
##lini	22153
abbess	28010
##oys	27153
manfred	19149
involvement	6624
##fu	11263
tao	20216
ur	24471
height	4578
predicting	29458
[unused393]	398
rt	19387
benefited	19727
intersects	17349
##tov	26525
##oja	22918
javier	13824
prey	8336
cheated	22673
[unused316]	321
alsace	24922
tak	27006
巿	1837
horizon	9154
##zio	12426
districts	4733
##ß	19310
rhapsody	29395
liang	16982
concentrate	10152
archaeology	12009
clone	17598
parameters	11709
repetitive	23563
memorabilia	28663
[unused551]	556
civilization	10585
##ika	7556
##sky	5874
madras	12993
stanton	15845
raj	11948
##sby	14478
wasted	13842
dominate	16083
##dah	18417
shriek	24795
leukemia	25468
almond	26011
國	1800
evade	26399
##ð	29668
##ovich	12303
salesman	18968
friend	2767
[unused453]	458
locomotive	8098
##car	10010
maestro	25270
##sr	21338
[unused492]	497
reforms	8818
turner	6769
impressed	7622
undertaking	18457
grupo	26678
##ible	7028
mercury	8714
slides	14816
equivalent	5662
35th	20198
[unused32]	33
ح	1276
bartender	15812
aires	9149
payne	13470
##olved	16116
hunger	9012
involving	5994
dense	9742
marquette	24223
monitoring	8822
[unused430]	435
trapped	7567
##mers	16862
marius	20032
ornate	18099
##gas	12617
unleashed	22416
picturesque	23273
protestants	19592
##zal	16739
artefacts	25762
jimmie	24671
yes	2748
generating	11717
pena	19409
eyeing	19285
painfully	16267
1906	5518
concussion	23159
slips	17433
classes	4280
coins	7824
##fall	13976
##avi	18891
tariff	23234
1710	23841
scoffed	26326
##nity	22758
northwards	27592
##ц	29751
pitchers	23232
covenant	16077
mla	18619
vectors	19019
##ean	11219
guinness	17323
peach	18237
practitioners	14617
sonya	27926
##宇	30345
[unused615]	620
##cured	19405
aisle	12485
[unused514]	519
whispered	3990
visibly	19397
wraps	19735
yeast	21957
conflicts	9755
channels	6833
[unused214]	219
novella	20674
archaic	19261
conde	24707
##itan	25451
ki	11382
[unused197]	202
waits	18074
proved	4928
roughly	5560
spirits	8633
238	22030
orton	25161
map	4949
bela	20252
boats	6242
counterattack	27835
tanker	20135
##ate	3686
unprecedented	15741
outlines	22106
হ	1377
accessed	11570
ச	1383
hui	17504
graeme	21840
trust	3404
tenant	16713
honesty	16718
ℝ	1579
##berman	23991
melodies	16106
[unused719]	724
1st	3083
superstar	18795
ign	16270
sheldon	19369
indicators	20390
nap	18996
flavour	28126
carry	4287
swimmers	21669
alec	9752
aj	19128
sponsor	10460
328	25256
judith	12924
sw	25430
bladder	24176
stil	25931
defenses	13345
##jack	17364
rowing	12037
robin	5863
fictional	7214
coptic	27672
##ɔ	29679
uk	2866
##ニ	30242
##sho	22231
mater	16289
eddie	5752
[unused971]	976
g	1043
kan	22827
amadeus	27185
progressing	27673
dracula	18500
straits	18849
miss	3335
godfrey	18238
##inates	28184
##list	9863
##nni	23500
halves	23672
women	2308
##rocity	21735
82	6445
england	2563
preferring	21393
disgrace	29591
variables	10857
[unused25]	26
kenny	8888
liam	8230
guards	4932
blush	16688
木	1875
zeus	15208
intimidating	24439
[unused512]	517
scarlet	11862
##bella	21700
austin	5899
headlining	26533
ranged	15844
arctic	10162
##cl	20464
brethren	17937
gb	16351
##athing	22314
paces	24785
doyle	11294
kg	4705
##ire	7442
hawks	12505
##nton	15104
clocks	20940
wesleyan	19858
pagoda	27387
1624	28531
[unused565]	570
##lga	27887
tasmanian	21394
quivering	26012
egyptian	6811
diary	9708
297	27502
1697	28690
treasure	8813
blinked	7948
germain	19192
##edging	28002
ferguson	11262
##dus	17619
parma	19177
##rber	20473
riverside	12497
nations	3741
gymnast	25055
##rup	21531
rest	2717
maynard	22130
mina	19808
emotional	6832
espn	10978
tray	11851
rey	12569
analyze	17908
brawl	23244
westchester	25489
incident	5043
mein	24182
[unused851]	856
backpack	13383
what	2054
37	4261
needing	11303
tai	13843
##gues	22967
ד	1244
##rase	23797
valued	11126
invitational	20129
costa	6849
wee	16776
##kr	21638
deepest	17578
間	1969
currie	20667
defected	26330
amara	28599
oceania	20526
##ggio	20650
1800	9807
starting	3225
phosphate	17344
save	3828
##bridge	6374
ecological	12231
compulsion	27638
convened	19596
is	2003
gerhard	21037
cloudy	24706
blindly	25734
shortlisted	21353
regatta	26848
montana	8124
111	11118
ལ	1435
slopes	10314
punches	17957
##nard	16564
##ca	3540
parentheses	27393
[unused69]	70
ʒ	1138
tbs	29584
erect	14908
##ω	29739
forbid	27206
licensed	7000
lifelong	13506
astros	22058
[unused614]	619
projecting	18398
designations	26672
j	1046
friendships	28956
93	6109
fiesta	24050
newt	25597
##宗	30347
##runner	23195
##ncia	22750
##gative	26792
##25	17788
##lates	26786
cambodian	24417
[unused39]	40
fame	4476
challenged	8315
##糹	30460
domains	13100
denton	23906
1880	6756
##nified	25201
nick	4172
premiere	6765
fueled	17999
koreans	24651
##pse	29251
soviet	3354
ukraine	5924
yellowstone	29231
##hre	28362
filippo	28669
removes	20362
telescopes	28026
[unused677]	682
monarch	11590
newcomer	16866
##bolic	18647
amour	21518
huntsville	28492
electorate	13694
buffet	28305
[unused574]	579
patterson	12424
stuck	5881
lear	26511
supplement	12448
immersion	27013
purse	8722
wounded	5303
15th	6286
##ested	17944
##⟩	30156
garcia	7439
parliament	3323
swear	8415
##鈴	30491
sweetie	22872
##ual	8787
embarked	11299
pedestrian	14662
treasury	9837
[unused294]	299
plaster	15673
jumped	5598
troll	18792
411	27517
awarding	21467
[unused189]	194
##baldi	28807
image	3746
wal	24547
second	2117
inhibitors	25456
ashe	13402
[unused188]	193
goes	3632
lynx	22636
##azi	16103
ned	12311
moat	25266
patron	9161
merchants	10310
auburn	12704
painters	12499
moaned	12557
sable	23492
##kato	26020
bourne	15803
##sum	17421
immense	14269
notions	21951
louise	8227
##gled	11533
##⁄	30070
ю	1209
christmas	4234
gonzaga	26840
##lb	20850
##rde	25547
winslow	26600
persons	5381
thor	15321
rear	4373
80s	16002
##film	23665
##anian	26032
southland	29121
darrell	23158
entrance	4211
ʉ	1131
amulet	25087
sited	28603
darius	14861
##₃	11622
boom	8797
##α	14608
municipality	3250
patch	8983
zoe	11199
##ל	29799
20th	3983
pauline	15595
colonel	4327
surrender	7806
##lding	24573
cambodia	12899
stern	8665
##⁺	12744
canonical	18562
boxed	27554
modular	19160
##ywood	26985
##ige	25538
omnibus	27284
satisfy	13225
##♦	30153
mill	4971
##ulates	18969
class	2465
gora	26967
justified	15123
alexandre	16971
benedict	12122
urdu	12454
beard	10154
##ta	2696
slowly	3254
tobias	16858
##nus	10182
clare	11152
angel	4850
alterations	16705
mouths	15076
jules	11044
gritted	17307
[unused213]	218
track	2650
##ection	18491
##imated	20592
spec	28699
balcony	11673
##ddle	20338
consumed	10202
seo	27457
##の	30197
aforementioned	17289
##iques	19516
trumpet	9368
retreating	17512
downfall	22252
vinyl	8877
legislatures	27977
linguist	22978
phillip	10852
snail	10879
atom	13787
piazza	22463
3d	7605
##tty	15353
have	2031
##dit	23194
spaghetti	26666
clock	5119
capitol	9424
[unused967]	972
groin	20092
##etto	20082
styling	20724
1712	28460
##น	29949
##amy	24079
instructional	23219
hilt	21184
melbourne	4940
rent	9278
register	4236
##vy	10736
nets	16996
elk	18995
surface	3302
angels	7048
darkly	27148
##郎	30484
humanoid	28051
splitting	14541
pierce	9267
##լ	29773
社	1924
##bation	23757
trial	3979
contamination	18701
executions	22679
winner	3453
predecessors	16372
ɕ	1113
##thus	19877
growls	27825
vibrations	22755
fredrik	25454
faulkner	25109
com	4012
jury	6467
contention	18974
batch	14108
cowan	25752
called	2170
portrait	6533
gunners	29000
##γ	29721
##nall	22270
spring	3500
planet	4774
money	2769
stuff	4933
nominally	24207
##llary	24435
halls	9873
traversed	27797
tara	10225
sworn	10741
solution	5576
defendant	13474
salt	5474
sniffed	18013
##oton	25862
exams	13869
pronouns	26028
108	10715
յ	1230
bullet	7960
journalism	8083
akbar	20730
triumphant	25251
reserve	3914
●	1619
##tel	9834
homosexuality	15949
compilation	6268
widening	17973
minh	19538
bing	17620
##rent	22787
inspiration	7780
[unused82]	83
tells	4136
explores	15102
strip	6167
##mus	7606
evidence	3350
escapes	12976
former	2280
##art	8445
overseeing	19642
kiara	28870
##dget	24291
[unused968]	973
grammar	8035
liquid	6381
find	2424
##antly	15706
discomfort	17964
##nish	24014
street	2395
nicholson	16955
administrator	8911
exception	6453
utrecht	18361
flirting	20661
fort	3481
##er	2121
road	2346
mckenna	21749
sonar	24609
originally	2761
##oft	15794
entrepreneur	10670
adapt	15581
£2	21853
₤	1572
jerseys	28772
salad	16521
protocols	16744
coop	21859
count	4175
fines	21892
amassed	22151
lighted	26390
squared	19942
##eaux	25639
religion	4676
[unused295]	300
theirs	17156
boris	11235
##tial	20925
[unused207]	212
decks	19963
##hot	12326
streetcar	21420
200	3263
bane	25163
elector	20374
clarkson	18648
accelerating	29494
atkinson	18646
##mounted	27632
denmark	5842
weekends	13499
foreigners	15040
segment	6903
describe	6235
plurality	29018
perform	4685
danzig	26669
subsistence	27667
peninsular	22682
1881	7005
descends	23328
##上	30268
ı	1104
hasty	27151
periodically	18043
factors	5876
##inton	27028
instruction	7899
[unused136]	141
##shi	6182
ohio	4058
vast	6565
carved	7844
newfoundland	11944
casinos	27300
slit	18036
lotus	13030
household	4398
##つ	30190
##hia	12995
frigates	22833
ignorant	21591
judgments	26186
randomly	18154
paulo	9094
newark	12948
them	2068
solos	24339
##caster	25490
julien	19290
mcgregor	23023
accumulated	14830
elevators	19406
maneuvers	23802
2005	2384
mood	6888
##card	11522
vin	19354
##unda	18426
milling	22491
battalions	10157
prospective	17464
interfering	24324
garth	21523
columbus	8912
allowance	21447
pseudonym	13881
consultation	16053
badly	6649
handles	16024
turned	2357
shipment	22613
grounds	5286
expand	7818
hmm	17012
amalgamated	17143
medals	6665
insulin	22597
cambrian	29228
##出	30300
abbreviation	22498
fulham	21703
frantic	15762
folks	12455
wonders	16278
##to	3406
##lana	16695
houses	3506
venezuela	8326
prescribed	16250
lover	7089
basilica	13546
strategy	5656
##mins	21266
spartans	24293
chaplin	23331
anthropologist	21571
ipa	24531
[unused320]	325
holster	29447
stepping	9085
reassured	26350
brick	5318
flank	12205
##lino	25226
breakaway	26321
cuffs	24347
meters	5563
black	2304
depot	8470
イ	1695
only	2069
examples	4973
explore	8849
rpm	11575
commemorates	25530
richer	26108
##宿	30352
##rove	17597
##ester	20367
develop	4503
castile	15656
##fb	26337
stationary	17337
acknowledge	13399
／	1992
tatum	25913
lucas	6326
cleaned	12176
##bl	16558
highland	10983
##mah	25687
##kota	27380
circles	7925
##ioned	19798
typical	5171
##py	7685
exchange	3863
lightly	8217
276	25113
##gin	11528
free	2489
sixteenth	14683
slip	7540
[unused314]	319
[unused169]	174
sniper	17515
##verse	16070
cerambycidae	13168
khmer	19472
remembers	17749
achievement	6344
provided	3024
recurring	10694
conscious	9715
immortality	20107
salamanca	29608
sharing	6631
##uth	14317
resign	12897
##drop	25711
herbal	27849
thirsty	24907
richter	20105
pressing	7827
[unused114]	119
bathed	24614
productivity	15836
##sund	25168
inning	12994
comedies	22092
reduce	5547
champs	29008
yoo	26823
launched	3390
ₛ	1570
down	2091
fails	11896
##pins	27915
shielded	25474
fabio	25616
nowhere	7880
cast	3459
##efe	27235
infants	16725
asphalt	16295
backstage	20212
##43	23777
illustrating	28252
blamed	11248
lamps	14186
##eving	23559
melted	12501
alicia	15935
##grant	18980
tapped	10410
connolly	21018
southend	26104
##ih	19190
remedy	19519
[unused663]	668
##nts	7666
[unused475]	480
良	1938
savage	9576
harley	13653
##mian	20924
##58	27814
##ctus	22675
precinct	18761
saigon	24001
promotion	4712
高	1981
officially	3985
dim	11737
tx	19067
spherical	18970
exiled	14146
horde	21038
##lp	14277
##ix	7646
[unused449]	454
3rd	3822
##utable	23056
declares	18806
dartmouth	16960
apostles	19178
surprised	4527
colour	6120
chorus	7165
##lem	16930
film	2143
##eka	19025
lamb	12559
sequencing	24558
##相	30445
writer	3213
stones	6386
collect	8145
advisers	24205
##ан	28995
jerome	11120
demanding	9694
prestigious	8919
dubious	22917
temporarily	8184
##{	29640
edgar	9586
•	1528
bedrock	28272
yamaha	24031
opaque	28670
encompassing	19129
org	8917
porter	8716
essence	11305
added	2794
militants	17671
lark	23404
seattle	5862
footage	8333
##lva	22144
##static	16677
##ease	19500
call	2655
polk	20819
tate	9902
remainder	6893
epstein	26646
1806	12518
coronation	12773
formulation	20219
gigs	20929
furnishings	23127
leaflets	27306
1550	26245
headlines	19377
##mill	19912
sabha	11200
##國	30326
bamboo	15216
antrim	24142
parades	26635
555	29541
tail	5725
deepened	20183
intersections	26540
alfredo	19423
[unused459]	464
continual	27222
symbol	6454
ordained	9492
girlfriend	6513
1969	3440
skye	16590
shuffled	18764
realms	18814
historia	19891
##ios	10735
vows	16495
##otti	21325
##analysis	25902
rift	16931
##aha	23278
refit	27070
happier	19366
musicals	20103
broadcast	3743
siam	25583
respecting	27818
42nd	21373
loser	10916
[unused752]	757
greaves	27808
spielberg	28740
publishes	12466
gail	18576
##ս	29781
nineteenth	9137
tyres	24656
##ries	5134
intact	10109
roster	9238
jeanne	14537
##?	29632
domestically	27143
1808	13040
email	10373
crude	13587
constantly	7887
##lika	25421
¢	1068
conspiracy	9714
stemming	29217
georgian	9166
##ulent	27581
##ryl	23320
greco	18180
##sier	20236
varied	9426
napkin	20619
upstate	29530
accustomed	17730
taluk	23140
demolition	12451
unnamed	13294
sha	21146
##makers	12088
informing	21672
glowed	16497
##aa	11057
newtown	26382
##mo	5302
##pl	24759
slayer	20005
bogota	21240
sleek	21185
##ym	24335
resting	8345
ɔ	1112
##nob	25083
thoughtfully	19897
[unused63]	64
##sari	22740
##acker	25418
privileges	14310
brest	22451
в	1182
nominal	15087
sweep	11740
bends	23394
##schen	23796
footed	28856
ny	6396
##ন	29902
covered	3139
weir	16658
jin	9743
disadvantaged	27322
organize	10939
puebla	27452
matching	9844
quintet	18109
hilary	22744
井	1754
henri	8863
method	4118
freelance	15919
eastward	17318
##hiko	22204
228	22238
acres	4631
altogether	10462
mauritius	18004
luciano	24512
forever	5091
vanish	25887
honda	11990
ali	4862
sale	5096
hid	11041
teller	21322
83	6640
bananas	26191
somewhat	5399
realization	12393
##ael	21147
exploded	9913
layla	19786
marseille	16766
prosperity	14165
accepting	10564
benito	23595
rate	3446
schultz	22378
confusion	6724
massey	21402
##now	19779
disputes	11936
partly	6576
guillaume	20061
buren	29470
##kney	26993
##eron	26534
1888	6690
wry	24639
sanctioned	14755
barnet	26864
ள	1393
sparhawk	13709
##─	30142
##阿	30497
##pal	12952
##rail	15118
remastered	19484
##ಾ	29938
gorge	14980
dennis	6877
rediscovered	26733
moaning	22653
[unused606]	611
犬	1908
##cheng	21043
tapes	13324
occupation	6139
bowed	11489
shifted	5429
1750	18171
wingspan	9635
rifles	9494
closes	14572
##nier	14862
stud	16054
publication	4772
consistently	10862
##mata	21022
disneyland	25104
deficiency	18888
##bate	20179
[unused301]	306
##`	29639
##人	30282
courses	5352
algeria	11337
angered	18748
commended	22429
capitalism	16498
/	1013
odisha	21874
benevolent	25786
empire	3400
howl	22912
pulse	8187
##chaft	29043
remixes	15193
cathedral	5040
unaffected	24720
baptist	7550
set	2275
jing	21536
limitations	12546
colliery	19462
experimental	6388
supportive	16408
indians	6505
boone	15033
##bid	17062
deciding	10561
unreleased	13270
mahmud	25886
nikita	29106
pounds	7038
conservative	4603
loss	3279
##fus	25608
shrine	9571
##nostic	28199
liaison	14975
##tiv	29068
##外	30335
ghost	5745
rhymes	24468
18	2324
supplies	6067
separates	18600
smoked	20482
jillian	27286
busy	5697
round	2461
compatible	11892
crust	19116
esa	28776
alligator	28833
##,	29623
brief	4766
##ckman	24080
melody	8531
##eli	20806
boer	19945
armenia	10110
duluth	28218
fucking	8239
##ffe	16020
combatants	26622
pontiac	24538
##ht	11039
arya	26140
[unused467]	472
miniseries	13612
governors	11141
hacker	23307
##shing	12227
sued	12923
potent	16834
tame	24763
abbey	6103
weeks	3134
mai	14736
##ded	5732
benjamin	6425
nodding	11863
bordering	18299
startup	22752
ardent	25314
shooter	13108
quicker	19059
superiors	22983
##vern	23062
rc	22110
##ological	10091
thug	26599
rope	8164
early	2220
mortality	13356
fender	19028
gilbert	7664
##dl	19422
cowboys	11666
prefecture	7498
alexis	13573
hunted	14682
businessman	6883
jorge	10853
lyman	27587
##59	28154
society	2554
star	2732
##culus	28703
stadion	20756
##rith	24292
yugoslav	12292
##iba	18410
banning	21029
vi	6819
callahan	25668
##sh	4095
occupies	14133
##hen	10222
roosevelt	8573
banda	24112
marche	28791
humor	8562
grande	9026
1772	17483
streaks	21295
mayors	21941
fantasy	5913
pomerania	18631
##rage	24449
24th	13386
nueva	24536
floyd	12305
consisting	5398
fuscous	18121
doubts	13579
dark	2601
urging	14328
##tort	25485
militia	8396
加	1779
observers	14009
francs	24313
algebraic	17390
chewing	17492
##dina	18979
##acio	21361
selling	4855
lancaster	10237
samoa	15075
maximilian	18838
park	2380
##26	23833
drilling	15827
##lton	13947
hailed	16586
##chio	23584
parting	20254
lange	21395
vienna	6004
hostilities	17601
##icia	24108
resignation	8172
observatory	9970
strewn	25259
##sis	6190
yielded	17544
parapet	27372
ס	1258
bite	6805
acclaimed	10251
rudolf	12794
picasso	22457
##ণ	29897
##gaon	27073
knicks	27817
##ptive	24971
singled	25369
dwarves	29281
principality	18018
##福	30452
##mann	5804
palaces	22763
laszlo	28226
fide	26000
э	1208
##皇	30443
heated	9685
interest	3037
seymour	13254
backward	8848
##ko	3683
pharmaceuticals	24797
taxi	10095
christians	8135
##ᆸ	30024
[unused78]	79
delight	12208
containment	29174
leather	5898
1872	7572
秀	1928
assists	8456
leighton	26873
quadrant	29371
carvings	22838
easily	4089
zionist	21379
##les	4244
guerra	24698
scored	3195
[unused601]	606
##tate	12259
everywhere	7249
bail	15358
opportunities	6695
vietnamese	9101
[unused135]	140
pausing	20490
input	7953
activation	13791
strand	11226
gig	15453
bouncing	16361
kazan	22001
credentials	22496
##cle	14321
polly	17543
tobago	17247
10	2184
##wa	4213
hunts	28526
raids	11217
##pher	27921
[unused982]	987
enhancement	22415
[unused728]	733
briefing	27918
protege	28567
##ught	18533
##tha	8322
advantages	12637
assess	14358
princes	12000
amplifier	22686
warp	24136
##เ	29959
##stone	9221
chord	13924
douglass	27485
hertfordshire	18889
##yla	23943
than	2084
343	27810
rooms	4734
imposed	9770
[unused14]	15
buick	28865
chase	5252
wizards	16657
perpetrators	27675
1905	5497
powerful	3928
computing	9798
processors	18017
⇄	1589
ა	1438
nec	26785
slower	12430
transparent	13338
vowels	15260
rotterdam	15632
progressive	6555
##hesis	24124
clerks	26706
176	18561
supported	3569
haste	24748
aqua	28319
pumps	15856
garnered	13056
deciduous	22411
simpler	16325
##one	5643
art	2396
vaccines	28896
trailer	9117
##awa	10830
constantinople	11776
##ndon	19333
##ལ	29971
talent	5848
##ph	8458
##gaard	18839
moravian	28131
coliseum	18338
distract	15886
banco	28678
sri	5185
##zine	21254
proof	6947
א	1241
sammy	14450
emilia	20417
green	2665
##о	14150
101	7886
clarke	8359
boards	7923
sounding	9391
installment	18932
##し	30183
informed	6727
216	20294
##finger	20349
##age	4270
##ack	8684
##erly	12561
kang	16073
blood	2668
austrians	28439
66	5764
189	20500
##koto	24886
fighters	7299
blooded	26064
十	1783
##kala	26907
##45	19961
godzilla	26631
sa	7842
conscience	13454
cords	24551
touches	12817
outfielder	21033
settle	7392
selections	16310
cruise	8592
##itative	29293
##rator	16259
retains	14567
pregnant	6875
thrilling	26162
shia	20474
##⊗	30140
beats	10299
benign	28378
##ographic	13705
cleopatra	22003
##itated	15198
boyle	16694
ω	1179
##osa	8820
blur	14819
##उ	29849
brianna	25558
entertaining	14036
##uer	13094
heavy	3082
amongst	5921
arroyo	23882
##њ	29763
##hem	29122
cabin	6644
baltimore	6222
fighter	4959
rated	6758
ћ	1217
unstable	14480
devotees	22707
[unused329]	334
##tat	29336
lagoon	15825
sign	3696
excitement	8277
brightened	28996
1620	24259
##ging	4726
explosion	7738
breeze	9478
[unused330]	335
festival	2782
asset	11412
##under	20824
fingerprints	27556
fees	9883
bel	19337
cautious	17145
ve	2310
yong	18999
[unused515]	520
busiest	20530
eruptions	28448
possessive	22105
proposal	6378
##leen	24129
thump	21324
florian	29517
##heimer	18826
1930s	5687
periphery	23275
checks	14148
##lab	20470
[unused410]	415
1821	11723
mozart	13177
reset	25141
southern	2670
##ach	6776
walking	3788
crawl	13529
grows	7502
marxist	15511
##ddled	28090
captured	4110
alam	26234
monastic	17361
envoy	19918
cleared	5985
##kee	20553
survival	7691
forming	5716
##oda	13390
testify	19919
saxophonist	19977
genes	9165
bubbles	17255
juventus	22760
cock	10338
impatience	28011
##ys	7274
##ш	29753
##tion	3508
closer	3553
bureau	4879
final	2345
guitar	2858
dan	4907
sermons	20855
erosion	14173
[unused340]	345
##val	10175
plunging	29059
[unused139]	144
cares	14977
##ffy	16329
juvenile	11799
π	1170
##pres	28994
##থ	29899
desmond	16192
bundled	24378
ר	1265
ₜ	1571
pegasus	26606
snyder	17840
##ox	11636
rulers	11117
roanoke	25899
refined	15514
clarinet	12089
arsenic	29596
tackled	26176
[unused540]	545
british	2329
sven	21313
customary	16120
explodes	27583
hesse	16399
southernmost	21787
[unused132]	137
pisa	25472
##port	6442
accomplished	8885
illustrations	11249
##մ	29776
intently	16170
##hend	22342
bases	7888
chopper	28057
crown	4410
errors	10697
chiefly	15897
ngos	22165
##ron	4948
asteroid	12175
enabled	9124
tangled	14170
accomplishments	17571
peterborough	17587
hide	5342
bargain	17113
unidentified	20293
nostalgia	26968
##uven	27346
。	1636
famous	3297
candle	13541
shudder	18261
joyah	27098
archduke	27463
drawer	13065
##cin	15459
pilgrimage	14741
interactive	9123
admiration	17005
sheet	7123
alleged	6884
广	1842
##ington	7853
chief	2708
upper	3356
newly	4397
aiding	24791
composition	5512
individual	3265
roth	12211
headquartered	9403
lumpur	17761
revival	6308
copies	4809
advertising	6475
eugen	29273
sediment	19671
[unused568]	573
alta	23647
toronto	4361
##lla	4571
assets	7045
stamped	20834
##body	23684
beale	28371
clinic	9349
growth	3930
##camp	26468
oblique	20658
palms	9486
##achi	21046
prowess	26120
icon	12696
shitty	28543
procession	14385
scaled	18953
frozen	7708
wants	4122
1632	28216
[unused662]	667
wasps	23146
tennis	5093
there	2045
ds	16233
[unused566]	571
madrid	6921
##bular	28808
gracefully	28266
kicks	14590
curling	11599
־	1240
eva	9345
##ticus	29587
[unused443]	448
##lag	17802
##lang	25023
newell	28052
historian	5272
sutherland	14274
##hone	27406
caused	3303
##tur	20689
amendments	16051
sedimentary	25503
destroyed	3908
##新	30388
29th	16318
##☆	30148
##ratic	23671
paying	7079
clubhouse	22067
##fahan	28975
##ti	3775
[unused373]	378
1860	7313
cigarettes	15001
swaying	21826
##die	10265
[unused3]	4
dispatched	14501
##ol	4747
counted	8897
affection	12242
eve	6574
ბ	1439
##lous	15534
##c	2278
pleading	16418
expulsion	18272
cuthbert	24583
gaunt	27534
##‡	30062
β	1156
lines	3210
easing	24070
thorns	28408
superiority	19113
ideas	4784
moment	2617
softly	5238
##ar	2906
##ふ	30200
##ls	4877
≥	1609
labor	4450
##wice	23425
tribe	5917
following	2206
boiling	16018
wreck	12006
await	26751
dawson	11026
##bled	23242
fractured	21726
many	2116
hating	22650
gordon	5146
archers	23118
solitude	22560
reserved	9235
##dium	12811
burning	5255
nfc	22309
[unused229]	234
u	1057
berber	27514
##長	30493
athena	21880
victoria	3848
trauma	12603
##eurs	26744
##ruff	26919
windmill	25367
##osity	25949
statistical	7778
namely	8419
sahib	23513
moses	9952
flick	17312
hold	2907
wrote	2626
demanded	6303
retention	20125
chosen	4217
1738	28009
crossed	4625
sprang	15627
components	6177
##fra	27843
demographics	28321
fontana	27182
##umen	27417
commissions	13239
roach	20997
journeys	19147
gershwin	25600
##ocating	27483
##内	30299
dusty	12727
argus	25294
idea	2801
##cliffe	18115
##cens	19023
deux	24756
pursuant	27081
swiped	24452
where	2073
hackett	28630
##¬	29655
clicking	22042
[unused991]	996
burundi	28836
##sal	12002
##jima	19417
buster	18396
##wg	27767
adolph	28564
measures	5761
bracelet	19688
prism	26113
definitely	5791
ripping	17039
less	2625
ui	21318
lucille	28016
persian	4723
corrugated	27186
ণ	1361
dig	10667
incorporating	13543
##inas	15227
romani	23982
montrose	24990
edited	5493
invaded	10836
tried	2699
owns	8617
witch	6965
camouflage	21356
31	2861
eaten	8828
##taking	17904
##tens	25808
kidnapped	11364
traces	10279
aka	9875
villain	12700
drag	8011
directing	9855
taken	2579
pry	29198
[unused757]	762
##astic	20875
場	1806
##aceous	25560
##ius	4173
##chel	15721
##ssel	21218
data	2951
tome	21269
shifter	18189
bridget	19218
1665	27676
ᄎ	1465
emerges	19391
matters	5609
iran	4238
?	1029
dungeon	16633
floppy	28491
linger	26577
##rone	20793
headmaster	16296
6	1020
hang	6865
foley	17106
throttle	24420
##tar	7559
tattoo	11660
damian	19507
##yd	25688
[unused48]	49
[unused117]	122
##zie	14272
resisted	13335
buddy	8937
blowing	11221
passion	6896
##ntation	23436
murdered	7129
+	1009
lurking	24261
dipping	23427
reactive	22643
bubba	19606
##izzly	29266
##hal	8865
ascending	22316
metre	7924
##lithic	28508
ա	1219
materials	4475
1833	11040
##lier	14355
mortgage	14344
monterey	19860
ingrid	22093
##zman	24340
valor	27314
lcd	27662
125	8732
##cor	27108
pursed	21954
recounts	23412
bequeathed	27180
missiles	10815
gaddafi	28924
markings	13967
spat	14690
##type	13874
こ	1655
rods	19485
ontario	4561
titan	16537
[unused332]	337
regeneration	20045
ג	1243
metropolitan	4956
ノ	1717
humorous	14742
failures	15428
upland	25770
cultural	3451
194	19955
##drome	29171
##ryn	18143
sprayed	25401
tracker	27080
arch	7905
seeming	16064
counseling	17041
isbn	3175
##wley	20609
observations	9420
71	6390
[unused391]	396
pigeon	16516
pasha	14292
singing	4823
territories	6500
popular	2759
derived	5173
サ	1705
henderson	9481
offs	12446
forerunner	23993
throbbed	27714
[unused57]	58
##艹	30465
waited	4741
##zd	26494
[unused162]	167
terraces	25633
ร	1417
subsidiary	7506
countless	14518
iss	26354
ottawa	8166
##tic	4588
afterwards	5728
##vron	28588
cecilia	18459
favoured	16822
hybrid	8893
##charged	22620
antiquities	21387
[unused191]	196
##bc	9818
drury	25663
##dro	22196
arcs	29137
indian	2796
businessmen	17353
##alic	27072
hand	2192
prohibit	23469
##chison	27795
##ogist	22522
##ash	11823
governorate	15162
straightforward	19647
core	4563
##ife	29323
earliest	5700
⺩	1632
aids	8387
¨	1074
gunnery	27919
jonathan	5655
296	27200
varsity	11710
telegraph	10013
jolt	22538
timor	19746
friendly	5379
musically	21385
doris	15467
1822	12307
##lom	21297
perished	23181
render	17552
unesco	12239
clenching	23970
kimberley	25004
discharged	14374
bungalow	27563
koch	15259
sand	5472
craftsmen	25736
whitehall	28361
somerset	9198
interned	26345
[unused253]	258
##ille	10484
landscape	5957
booths	27612
[unused138]	143
##nas	11649
lifeboat	23450
[unused612]	617
scan	13594
tully	25724
ursula	20449
lax	27327
##tta	5946
jewelry	11912
bridges	7346
[unused315]	320
##₊	30086
act	2552
remote	6556
benefits	6666
exceptionally	17077
vigor	24474
tumbled	18303
健	1768
overview	19184
requirement	9095
elmer	21464
embark	28866
##tsky	26824
wand	23967
manifold	19726
forcing	6932
і	1213
##dan	7847
##⇌	30118
##sma	26212
##ifies	14144
industrial	3919
cricket	4533
♣	1624
vampire	4393
yellow	3756
horne	24084
fridays	26587
springfield	10493
percival	27832
bobbie	27731
immersed	26275
detroit	5626
[unused813]	818
folded	6999
diane	12082
ʷ	1143
[unused626]	631
##tite	23096
ј	1214
done	2589
flower	6546
surprising	11341
##на	19865
approach	3921
1788	15622
reykjavik	28559
amnesty	16154
archway	28189
listen	4952
singapore	5264
##nl	20554
##31	21486
decay	13121
persuade	13984
##adt	18727
##mu	12274
italy	3304
zheng	20985
mbc	27262
sauce	12901
scrambling	25240
skylar	27970
##bes	12681
ace	9078
##nch	12680
volga	26459
linda	8507
hartman	26766
##с	29747
##qi	14702
##uring	12228
nearer	20388
cosmopolitan	24686
nearby	3518
hockey	3873
presenters	25588
rowland	20539
##imeter	19198
sarawak	21546
##rwin	27349
reactor	13308
tag	6415
battleships	21327
patted	11930
multinational	20584
sighting	29426
blunt	14969
fronted	23291
##way	4576
manly	19385
م	1295
sabine	18578
curious	8025
watershed	12547
oppression	20489
sufi	21845
lev	23310
against	2114
cushions	27205
##ceae	9071
eleven	5408
cove	11821
spawning	27957
joseph	3312
ட	1384
posture	16819
poly	26572
##hel	16001
1990s	4134
baseball	3598
asserts	19514
enzyme	9007
differently	11543
note	3602
domain	5884
sweatshirt	28095
##nting	24360
##京	30281
к	1189
θ	1162
shin	12277
sampson	22041
consoles	22659
shear	18330
##dran	24914
truly	5621
##ᄂ	29992
##cite	17847
turkmenistan	25432
incredible	9788
echoing	17142
commands	10954
kristin	25130
harm	7386
aeronautics	27459
aiming	13659
daylight	11695
[unused226]	231
face	2227
263	25246
##iel	9257
provider	10802
confession	12633
assistants	16838
##nology	21020
samsung	19102
drugged	25483
landowners	20152
##後	30372
burden	10859
stroke	6909
duchess	11017
##jou	23099
##ppy	27659
##well	4381
weights	15871
functions	4972
##mini	25300
word	2773
tarzan	24566
berwick	24957
acts	4490
[unused888]	893
1836	10081
rna	12987
truth	3606
pretending	12097
##;	29628
inappropriate	15884
[unused254]	259
multimedia	14959
[unused208]	213
grave	6542
brisbane	7717
dalai	28511
geometridae	24687
##chus	16194
attach	22476
hallways	28274
[unused501]	506
##stream	21422
##pus	12207
appropriately	23263
freshmen	26612
tucker	9802
opposition	4559
well	2092
hammond	11309
rotational	25254
similar	2714
##nath	16207
wartime	12498
vogue	17734
spines	20352
remember	3342
laid	4201
cinema	5988
din	11586
jong	18528
##erland	22492
whose	3005
surveyed	12876
х	1200
profit	5618
[unused859]	864
risks	10831
andhra	14065
[unused683]	688
ronan	18633
nagar	16395
embraced	14218
constellation	15300
hawke	24882
reliefs	27670
5000	13509
huskies	29471
1900	5141
enhancing	20226
restraints	28054
[unused618]	623
declare	13520
łodz	17814
##pad	15455
##orous	25373
##elle	14774
board	2604
1909	5556
bayern	21350
##urer	27595
restriction	16840
t	1056
cake	9850
overtime	12253
ル	1733
##ur	3126
unsuccessfully	11551
##cology	19824
figuring	23218
marriage	3510
##tray	28473
kun	28919
millionaire	19965
stillness	29435
ة	1272
seamen	28671
minimum	6263
##deck	26547
error	7561
[unused119]	124
gaulle	28724
acute	11325
recycled	22207
tract	12859
192	17613
somalia	14717
espionage	21003
##hea	20192
regents	22832
juice	10869
##چ	29840
java	9262
planck	26486
operation	3169
shea	16994
bottom	3953
predictions	20932
##安	30346
##ger	4590
participates	17257
miguel	8374
##lson	14881
intake	13822
##mbling	29256
faux	29276
##itaire	29422
##dilly	28832
patrons	13497
london	2414
я	1210
##ridge	9438
arcade	10877
##hee	21030
obesity	24552
boiler	15635
conditions	3785
hills	4564
dormant	22170
1940s	7675
yield	10750
##itor	15660
live	2444
fulfilled	16829
pasadena	18880
noel	10716
1967	3476
handed	4375
##cans	26642
murphy	7104
corrupt	13593
favored	12287
internationals	27340
protest	6186
casualties	8664
##nage	27031
##cultural	29415
neurons	15698
##く	30179
temporal	15850
lifespan	26462
wharf	16435
幸	1841
fitz	27706
twelfth	11313
##ashi	12914
sparkling	16619
##cus	7874
felipe	17095
grins	20237
maureen	19167
meaningful	15902
##uz	17040
plateau	9814
emperor	3750
pc	7473
argentina	5619
[unused894]	899
太	1812
accommodation	11366
scrapped	14553
opportunity	4495
fragmentation	28424
##olt	27914
grassland	20331
everyone	3071
roller	11220
sack	12803
hurts	13403
[unused558]	563
lucinda	28261
wake	5256
downloadable	26720
myanmar	12620
##nr	16118
vaults	28658
hepatitis	28389
[unused288]	293
tombs	16623
ismail	19214
eight	2809
largely	4321
##can	9336
##vial	18660
claire	6249
roses	10529
modules	14184
backwards	11043
economical	21791
greene	11006
conducts	17976
masjid	27779
mbe	20301
armoured	11104
rhodes	10588
##fires	26332
##idia	29342
fire	2543
##point	8400
scenario	11967
dots	14981
pollen	22482
འ	1433
viruses	18191
##ft	6199
prosecuted	21651
applications	5097
##³	18107
bowen	16208
[unused690]	695
[unused931]	936
convoys	23083
xp	26726
##ike	17339
traveling	7118
ching	19992
unofficially	29322
モ	1727
aims	8704
stammered	28532
bone	5923
diagnosed	11441
percentage	7017
##ards	18117
goodwin	19928
canons	21975
starr	14330
ankles	15392
inline	23881
ion	10163
equipment	3941
cursing	19752
rig	19838
holocaust	11513
shoulders	4065
cured	21391
transverse	18323
pale	5122
bombed	18897
##bedo	28759
hindi	9269
warned	7420
typically	4050
translated	5421
pending	14223
shaw	8233
symmetry	14991
##rino	17815
toxin	29090
violently	14196
nina	9401
standing	3061
updated	7172
spark	12125
##ein	12377
gulp	26546
yahoo	20643
gambia	26728
beating	6012
recalls	17722
hadn	2910
##skin	29334
##rook	25399
hardness	23608
##wich	12414
agreeing	16191
responding	14120
[unused636]	641
communication	4807
pod	17491
lakeside	28701
erasmus	26809
electrification	23679
exodus	16388
nguyen	16577
puddle	25081
vito	25550
hans	7003
nsa	23971
geometry	10988
broadcasting	5062
substantial	6937
##宣	30349
interpret	17841
680	23944
poker	11662
canvas	10683
leger	26523
acceptance	9920
↑	1584
utilization	27891
bc	4647
##zko	29002
ellie	10707
onslaught	28644
legend	5722
dickson	22076
priestess	27677
flanders	13998
violate	23640
[unused625]	630
##liga	14715
grimes	24865
辶	1956
bazaar	22774
partially	6822
jars	25067
[unused425]	430
nonprofit	14495
##rmed	29540
##ental	21050
resistance	5012
emerge	12636
##emy	26662
land	2455
roc	21326
dominic	11282
aliens	12114
mentions	9704
girls	3057
shipbuilding	16802
谷	1951
reader	8068
please	3531
that	2008
abolition	15766
##eter	15141
skier	21294
lo	8840
raised	2992
maybe	2672
est	9765
myers	13854
bam	25307
chrysler	17714
el	3449
cuisine	12846
pins	16300
##wn	7962
lunged	17755
stanley	6156
dso	22951
##vo	6767
shooting	5008
pirate	11304
depictions	20818
##kh	10023
tenderly	26596
spheres	19885
says	2758
##layer	24314
##ising	9355
##ウ	30222
142	16087
transient	25354
##erian	27549
psychiatrist	18146
##rgos	22280
cale	21854
##lt	7096
overboard	27089
electric	3751
##tell	23567
cure	9526
parted	10277
##lic	10415
tubes	10868
pearls	21944
cooling	11520
##ivist	21997
ono	21058
wrap	10236
multiple	3674
solve	9611
##rz	15378
##dez	24601
plot	5436
embassy	8408
dept	29466
superficial	23105
offer	3749
offices	4822
subsp	24807
##gno	26745
drains	18916
paramilitary	22258
##icum	22167
packaging	14793
beverley	29057
trickle	26027
##bba	22414
corrected	13371
georgie	20280
clemens	27277
microscope	24635
investigator	14064
counterparts	14562
huddled	20258
wagner	10304
seals	13945
detail	6987
##grants	27444
way	2126
matrices	21520
synthesizers	22211
shu	18454
improve	5335
confess	18766
dared	15048
ashland	24346
diabetes	14671
voivodeship	7225
み	1678
attract	9958
freak	11576
site	2609
flooded	10361
therapeutic	17261
##tti	6916
corey	18132
initiate	17820
##ɫ	29686
##onzo	29452
##英	30467
##，	30515
##written	15773
presentations	18216
boston	3731
touchdowns	10183
sands	13457
life	2166
romanian	7056
mage	17454
oleg	25841
johansson	26447
commission	3222
grow	4982
##sdale	15145
cheerful	18350
##見	30474
illusion	12492
##ishing	21837
simulator	25837
pascal	17878
##რ	29987
meanings	15383
continuum	22961
rao	10546
audit	15727
motorized	26172
barton	12975
harmless	19741
suburban	9282
tires	13310
lucrative	21115
;	1025
##than	21604
canal	5033
luck	6735
suggests	6083
gather	8587
capability	10673
sighing	19381
blair	10503
##wire	20357
sicilian	22584
##thy	16921
logan	6307
aaron	7158
internal	4722
descendants	8481
barracks	10492
shelley	15828
##eto	18903
##rou	22494
pods	26723
abnormal	19470
solid	5024
##ා	29944
decker	20946
##ency	11916
##grin	24860
acceleration	16264
##rri	18752
##−	22543
##edance	29605
unhappy	12511
[unused263]	268
cary	20533
##iating	15370
##lan	5802
walnut	18489
322	23768
weeds	20777
dyed	28432
negative	4997
rotating	13618
##guide	28582
##前	30302
wizard	10276
গ	1355
##wicz	21355
[unused655]	660
337	28489
omega	14827
workforce	14877
[unused938]	943
uss	7234
brothel	27308
m3	29061
legitimacy	22568
admiring	24588
head	2132
wolverhampton	20085
##ior	25346
racism	14398
##free	23301
##bon	11735
##test	22199
dutch	3803
appear	3711
middleweight	18741
milk	6501
##iu	17922
scientology	23845
54	5139
##cha	7507
##ida	8524
palmer	8809
jokes	13198
uranium	14247
[unused647]	652
##cape	19464
##kko	22426
氷	1895
magnum	19691
[unused946]	951
itself	2993
scratched	15047
##mbit	28878
##zz	13213
downing	22501
[unused708]	713
style	2806
德	1848
gasping	17054
##nk	8950
##ffa	20961
##anta	26802
marred	24563
##tron	15312
vedic	25824
digit	15340
##tor	4263
##owski	15249
島	1833
profound	13769
arrest	6545
resentment	20234
valuation	26004
elves	16980
##eal	15879
fluttered	18360
##zhi	19436
exceptions	11790
##ˤ	29719
andres	15614
occupations	23374
dolphin	17801
sync	26351
hapoel	24208
facilitate	10956
weaker	15863
duck	9457
welcomed	10979
bodied	22549
rippled	26862
baha	13253
##week	28075
##orth	28610
##加	30305
latvia	12429
opus	16895
matched	10349
##ede	14728
hats	16717
giant	5016
carroll	10767
behaviors	15592
##sian	17043
travelling	8932
youtube	7858
##llie	23697
britannia	24677
exact	6635
toulon	27160
escorting	23831
##eem	21564
thumping	25996
closure	8503
orbits	20347
disappearance	13406
##ʳ	29708
work	2147
181	18596
evolved	7964
sim	21934
posterior	15219
[unused158]	163
riddle	21834
##orestation	25794
midsummer	28171
playground	14705
さ	1656
dolores	21544
1987	3055
vocabulary	16188
[unused679]	684
raining	24057
₩	1573
295	21679
1704	27769
##nz	14191
##ux	5602
instrumentation	16015
labs	13625
##ici	28775
news	2739
in	1999
shaky	15311
cinderella	21686
toyota	11742
assessing	20077
wheeler	12819
attitudes	13818
ranging	7478
##tlement	24007
cursed	10678
classed	27811
en	4372
worked	2499
masters	5972
diagnosis	11616
1982	3196
bland	20857
khz	17737
stabilization	28715
end	2203
tribal	8807
##kon	19648
retaining	12823
festivals	7519
48	4466
remy	22712
mango	24792
baccalaureate	27802
brat	28557
snort	26759
chooses	15867
prosecutor	12478
geek	29294
rourke	24400
searches	17193
##aday	28039
iraqi	8956
query	23032
##brates	25258
ferrara	28635
##fted	18915
lauren	10294
sobs	21503
abolitionist	29554
amazement	21606
##lr	20974
selective	13228
##ously	13453
kingdom	2983
physicist	13702
circus	9661
115	10630
##form	14192
magazines	7298
##eries	28077
costello	21015
mitchell	6395
[unused643]	648
pedersen	27409
##ය	29940
##cating	18252
sail	9498
fisheries	13424
lever	15929
literal	18204
earle	23888
pier	10356
layton	23103
premises	10345
[unused322]	327
lynn	9399
_	1035
admits	14456
financing	12135
goddamn	16477
depth	5995
thinkers	24762
coe	24873
standard	3115
##mind	23356
marcus	6647
glendale	27649
johor	25268
##0s	16223
lectured	19206
lone	10459
333	21211
judgement	16646
##masters	27751
##ney	5420
submit	12040
##aria	10980
[unused642]	647
headquarters	4075
##ᆷ	30023
immigrated	17352
##ient	11638
tier	7563
##uge	22890
##eses	23072
##ification	9031
interfaces	19706
[unused122]	127
celeste	21113
shaggy	25741
web	4773
prolonged	15330
reject	15454
references	7604
[unused684]	689
glacial	17381
[unused957]	962
##lin	4115
##aga	16098
hawthorne	23440
crest	11146
380	17014
verbal	12064
seville	18983
microscopic	26396
condemned	10033
policing	21107
stem	7872
olympian	25977
nightstand	23135
hedges	25840
behold	27541
##ת	29813
##enko	17868
womb	26578
translators	28396
[unused673]	678
adds	9909
##rano	20770
screamed	7210
paced	13823
articles	4790
##ckey	29183
##bbed	15499
##gre	17603
claimed	3555
likeness	28275
spoken	5287
fenton	27096
condemn	28887
##40	12740
trafford	26894
maintenance	6032
¾	1093
ultraviolet	26299
una	14477
ernst	10728
hobbs	23748
##psy	18075
##rate	11657
showers	23442
radio	2557
fcc	14420
everything	2673
undergo	13595
##bian	15599
pork	15960
##aca	19629
asha	24595
##neil	27276
##〈	30163
##・	30264
shuffle	23046
1500	10347
##⊂	30137
terminology	18444
stroll	27244
person	2711
comes	3310
cement	11297
grounded	16764
entries	10445
##♭	24102
ے	1310
dollars	6363
strangely	13939
biscuits	27529
estimated	4358
interlude	25347
1654	27445
##ope	17635
regrets	23161
department	2533
presents	7534
##ller	10820
excellence	8012
secular	10644
reagan	11531
breuning	18177
spores	23763
##ajan	28869
melanie	13286
##islaus	25678
##bant	29604
funds	5029
##xie	16898
##erving	25164
mayor	3664
delighted	15936
##£	29646
rattled	19252
coaches	7850
##ret	13465
430	19540
nsw	11524
fluctuations	28892
skulls	21542
##tl	19646
octave	21817
respective	7972
wildlife	6870
##nia	6200
##র	29908
victories	9248
vanguard	18332
[unused436]	441
favour	7927
presbyterian	10133
##yang	12198
dunne	26553
##せ	30185
program	2565
desirable	16166
excuses	21917
##ave	10696
munster	11348
otter	22279
07	5718
calming	23674
##巿	30363
##dents	28986
##ind	22254
said	2056
universite	22176
marguerite	15334
wellington	8409
##rked	19849
wilhelm	9070
movement	2929
##inated	15833
ke	17710
modest	10754
yale	7996
र	1333
stockholm	8947
##als	9777
brooklyn	6613
sufficiently	12949
skyla	21738
hove	25215
smartphone	26381
1879	7449
darts	17493
##mad	25666
gene	4962
rejoined	14311
wears	11651
##ott	14517
chambers	8477
laced	17958
multiplied	28608
offspring	13195
als	25520
##竹	30459
bb	22861
specimens	9908
##ร	29953
[unused965]	970
[unused698]	703
gonzalez	10121
tesla	26060
accusations	13519
john	2198
countryside	10833
titled	4159
fin	10346
satisfying	17087
フ	1720
devote	23313
jingle	29262
peacefully	21614
1886	6929
##hurst	10510
storms	12642
⊕	1612
##nger	11392
georgetown	12982
shrub	15751
e	1041
beneficial	15189
charcoal	18872
##oun	23709
holder	9111
angeles	3349
wouldn	2876
generous	12382
nursery	13640
soo	17111
administrations	27722
pioneering	13280
phillips	8109
305	20405
##jong	21958
million	2454
sudanese	25603
##mei	26432
##cz	27966
writing	3015
oscar	7436
##志	30377
arriving	7194
sink	7752
##ey	3240
##amps	25167
blogger	28205
moor	16808
twin	5519
dallas	5759
summoned	11908
viaduct	20596
dramatically	12099
prostitution	15016
triassic	29529
##oulos	28262
primetime	18474
[unused355]	360
marine	3884
savings	10995
##mmy	18879
pmid	20117
excel	24970
isa	18061
pupil	11136
additive	29167
##tes	4570
distant	6802
[unused404]	409
associate	5482
problems	3471
assign	23911
quebec	5447
tribunal	12152
taekwondo	28529
inspired	4427
barrage	19359
##tang	26067
estadio	14143
₹	1576
cinematic	21014
[unused370]	375
fraud	9861
infrastructure	6502
shiny	12538
forcefully	23097
##mar	7849
paving	28007
[unused127]	132
reds	12281
thank	4067
backside	25065
minutes	2781
valerie	14264
artworks	22000
lucie	28831
electron	10496
titular	12960
shortage	15843
f1	20069
##vat	22879
##ates	8520
##rrigan	28706
[unused838]	843
perkins	13601
[unused403]	408
##yam	14852
2001	2541
crimea	21516
stable	6540
##ders	13375
##vc	25465
##stra	20528
⁵	1539
##ა	29974
knowing	4209
during	2076
messing	22308
among	2426
[unused923]	928
traps	16735
cbn	21824
satin	19412
caledonia	19305
fence	8638
##ido	13820
relational	28771
disappears	17144
geography	10505
aquatic	13582
##は	30198
revenue	6599
##cure	23887
court	2457
columns	7753
injustice	21321
variously	17611
з	1187
sis	24761
##ani	7088
jon	6285
permits	14245
##walker	26965
dell	12418
graham	5846
bessie	29298
servants	8858
[unused987]	992
unwanted	18162
crambidae	21585
technicians	20202
obsolete	15832
versus	6431
authorised	19256
learning	4083
karin	24537
absolutely	7078
ask	3198
orthodoxy	26582
cellular	12562
##ker	5484
chant	16883
##rity	15780
kato	27496
##tte	4674
[unused0]	1
1978	3301
##nh	25311
dubois	26258
actor	3364
champion	3410
fang	15197
##‐	30048
respiratory	16464
groom	18087
boise	23193
lawrence	5623
upgraded	9725
mentor	10779
turnout	15512
narration	21283
barrow	15355
approved	4844
cyclones	26069
##phus	25255
preliminary	8824
73	6421
##yp	22571
面	1976
mats	22281
existing	4493
##roll	28402
guido	20239
undergoing	14996
定	1822
##ry	2854
action	2895
chill	10720
creature	6492
bloom	13426
stafford	15064
simpson	9304
antiquity	16433
##promising	25013
bf	28939
feels	5683
##≈	30133
last	2197
jews	5181
access	3229
bilateral	17758
dreamed	13830
conqueror	25466
menon	25111
flinders	29120
spray	12509
installation	8272
ᵏ	1501
landowner	20270
##une	9816
by	2011
craig	7010
[unused461]	466
charity	5952
salzburg	18369
quan	24110
hesitant	20221
##yin	25811
horn	7109
##ₐ	30089
renee	17400
##nsk	25564
novi	21574
percent	3867
brigadier	9900
curving	21439
##gingly	28392
daze	28918
lennon	14294
occasions	6642
violations	13302
carlisle	13575
shankar	17429
donaldson	23164
##paper	23298
led	2419
900	7706
1934	4579
faded	8105
punched	11696
experiencing	13417
speaker	5882
##omics	25524
fda	17473
investing	19920
celaena	29252
minerals	13246
##rus	7946
stevenson	13636
socio	17522
calculated	10174
cartoons	13941
malvern	28082
fernando	9158
[unused411]	416
##kow	24144
harriet	14207
synagogue	13067
growing	3652
hamilton	5226
production	2537
occurred	4158
posse	25751
murders	9916
resurgence	26303
risking	26875
##plane	11751
##wang	16600
naomi	12806
recommends	26021
lamar	19756
orr	26914
ม	1415
shorter	7820
celebrities	12330
sabah	22515
must	2442
performance	2836
guarded	13802
switch	6942
boys	3337
##kiewicz	28563
##vik	13309
##ister	12911
mandir	22700
cleansing	26799
##香	30505
panting	15601
constitutional	6543
defined	4225
##ish	4509
##ises	13087
collaborations	17437
footsteps	9717
bridge	2958
plantation	10065
##ivism	22486
yo	10930
##≡	30134
norwood	22804
jen	15419
monuments	10490
forty	5659
[unused397]	402
##ship	9650
##dos	12269
solicitor	15468
qui	21864
replied	3880
##zek	24506
isaac	7527
referees	25118
it	2009
posts	8466
feelings	5346
investigation	4812
##nem	25832
susquehanna	26361
owens	14824
マ	1723
piloted	27220
##清	30429
over	2058
[unused262]	267
makes	3084
draws	9891
##der	4063
full	2440
1682	29478
gemma	19073
##bbe	19473
forceful	28552
borrow	17781
canceled	13261
amateurs	24361
via	3081
rubbed	7503
hangul	19051
papua	13049
藤	1944
hellenic	23122
waters	5380
always	2467
flawless	27503
proving	13946
##frey	22586
alarms	29034
[unused496]	501
demeanor	21745
halfway	8576
runs	3216
evaluate	16157
musica	21137
placing	6885
compromise	12014
fisted	28273
[unused815]	820
enters	8039
countdown	18144
guyana	18786
wins	5222
seaman	21626
distinguished	5182
cadillac	20425
##ད	29964
viewed	7021
noses	27518
lal	21348
##verance	21998
kassel	27884
business	2449
guillermo	21070
upcoming	9046
##dou	26797
advent	13896
numbers	3616
quarter	4284
array	9140
wicked	10433
##erus	21608
bewildered	24683
absence	6438
baker	6243
governments	6867
##tet	22513
##don	5280
relegated	7049
reconciliation	16088
avery	12140
1968	3380
dominican	10104
hampson	21780
supplying	17731
##ive	3512
##firmed	23141
embrace	9979
shrines	22562
##sg	28745
outputs	27852
ahmad	10781
hindu	7560
漢	1904
source	3120
merits	22617
##ك	29835
functioning	12285
cars	3765
geelong	18664
neatly	15981
congratulations	23156
january	2254
condition	4650
titanium	23431
colorado	5169
negligence	27988
sd	17371
greed	22040
mathias	20494
##hui	20552
means	2965
jack	2990
followers	8771
₄	1551
midway	12213
[unused723]	728
122	13092
curves	10543
360	9475
1714	25241
##zh	27922
##100	18613
##ans	6962
kelly	5163
plainly	24250
defensive	5600
lounge	11549
[unused18]	19
nickname	8367
coughing	21454
fed	7349
##olar	19478
layne	22452
products	3688
mikey	25998
219	20636
chloride	19057
bikes	18105
##β	29720
slalom	19617
emily	6253
missionaries	11743
penn	9502
arab	5424
##hiff	25798
skin	3096
##tara	27115
zane	6944
dissolution	12275
conditional	18462
exasperated	24379
##ology	6779
佐	1764
##འ	29969
honorary	5756
borne	15356
outlaw	19104
##oration	21223
dominates	29532
driven	5533
##stic	10074
##》	30166
lindsey	17518
##rt	5339
##ᵘ	30042
luna	12909
590	25186
brooke	11535
marlene	26921
arsenal	9433
butt	10007
preacher	14512
rai	15547
riders	8195
receptor	10769
##42	20958
crosby	14282
177	18118
campus	3721
##ril	15928
restrict	21573
forthcoming	16875
ankle	10792
sergei	14543
clench	26753
wessex	27886
calcutta	13419
background	4281
derelict	28839
realizing	9301
##dict	29201
engraving	23501
##ennial	22929
may	2089
sodium	13365
pasture	20787
perrin	28106
##berger	14859
meets	6010
[unused231]	236
[unused376]	381
cabbage	28540
##gly	25643
hugging	17662
[unused751]	756
jackie	9901
[unused291]	296
##ose	9232
novo	24576
##loe	26846
##acy	15719
skinner	17451
pr	10975
usable	24013
nrl	20686
newmarket	22489
ease	7496
rankings	10385
stir	16130
cynical	26881
breadth	25291
cass	16220
[unused700]	705
321	24030
process	2832
dealers	16743
##vor	14550
showcased	22443
layout	9621
corners	8413
mankind	14938
innings	7202
helplessly	24942
sciences	4163
affected	5360
beginnings	16508
##ffer	12494
severe	5729
##tsk	29064
209	19348
coupled	11211
##ples	21112
drastic	23956
ric	26220
furious	9943
##riding	21930
´	1084
makeup	5789
##ই	29885
chong	24008
productive	13318
mornings	16956
huh	9616
accessories	16611
rehearsal	17887
individuals	3633
[unused791]	796
govt	22410
ley	25866
gods	5932
ferdinand	9684
jacques	7445
nightingale	21771
##ی	24830
zachary	19474
[unused722]	727
cy	22330
erika	24900
puzzle	11989
taller	12283
gorgeous	9882
responsive	26651
perimeter	13443
siren	19558
wallace	7825
##vet	19510
consistent	8335
horned	26808
sinn	26403
macintosh	22228
##gate	5867
fern	20863
##z	2480
micro	12702
proto	15053
sainte	16947
##∅	30121
堂	1805
##nesia	21509
hanna	10579
victor	5125
spike	9997
experiments	7885
tanner	12780
##ungen	23239
claudia	13479
dog	3899
stove	16247
libby	19533
##ilis	24411
##aging	16594
tokugawa	22065
synthesis	10752
incorrect	16542
routing	16972
leach	24520
bandit	25334
deco	21933
reclaimed	23119
cases	3572
palestinians	21524
scriptures	22481
sleeve	10353
terminated	12527
cargo	6636
toppled	27251
prevents	16263
pride	6620
proper	5372
mag	23848
##oot	17206
complimented	27175
wooden	4799
handicap	15822
serpent	16517
##井	30280
blasting	26239
pakistani	9889
update	10651
rocked	14215
speeches	13867
lambda	23375
##lum	12942
glance	6054
drum	6943
non	2512
strawberry	16876
achievements	10106
stuttgart	13022
mad	5506
bae	25818
[unused218]	223
mabel	19486
1890	6193
really	2428
chinatown	22321
##old	11614
ling	17002
arturo	20520
dismissal	15322
sincerity	23997
sonia	16244
coca	16787
combined	4117
##sos	17063
faculties	18658
unarmed	23206
##main	24238
##ska	8337
nonfiction	25753
pip	28315
valves	17355
flipped	9357
cleveland	6044
##wave	16535
honolulu	16598
##千	30310
isaiah	18850
neared	20832
switching	11991
pi	14255
##smo	25855
simi	28684
extends	8908
apology	12480
junta	22450
keating	25865
##chia	20881
hearing	4994
page	3931
depiction	15921
fbi	8495
ts	24529
tobin	28096
moon	4231
negotiated	13630
seminary	8705
steamship	23869
undrafted	21347
##cona	24366
release	2713
widow	7794
generosity	26161
principal	4054
belarus	12545
alternatively	14084
expansive	25145
##aries	12086
clandestine	24450
swat	25414
fig	20965
chest	3108
marshes	19257
cry	5390
##unk	16814
##kaya	20718
married	2496
graduation	7665
##werk	29548
[unused274]	279
terrorism	10130
reported	2988
cigarette	9907
##beck	12750
extent	6698
schmidt	12940
monkeys	17059
bought	4149
vulture	27588
£5	27813
expression	3670
##eis	17580
rockets	12496
transcript	24051
[unused123]	128
knows	4282
pattern	5418
dare	8108
original	2434
discs	15303
rotate	24357
ch	10381
registrar	24580
gardening	21529
experimentation	21470
##cliff	27580
pew	29071
reassuring	21093
valid	9398
jade	12323
warnings	16234
##ezer	25733
uniquely	20640
##lez	28060
##ocytes	28788
decisions	6567
##reate	29313
bears	6468
breaths	12938
stylized	19551
##ignon	24796
tossed	7463
doi	9193
bouquet	26700
##athy	17308
ャ	1728
##arina	27943
biker	28988
boots	6879
walsall	29054
anymore	4902
stockton	19161
knotted	27039
##eng	13159
ja	14855
consensus	10465
[unused993]	998
##mbe	18552
dissent	24116
cpc	28569
##ʻ	29711
gradually	6360
beverly	12218
##ians	7066
ー	1739
successful	3144
##rave	22401
momentarily	16032
kahn	19361
protected	5123
meat	6240
##ct	6593
frightened	10363
hearings	19153
county	2221
dynasty	5321
sigma	13201
##kki	24103
##日	30390
joel	8963
##⁹	30078
##riation	18769
##13	17134
drink	4392
haynes	21805
speechless	25146
romeo	12390
chocolate	7967
brunette	27261
provides	3640
begged	12999
augustine	14060
cyclist	14199
ideally	28946
wrist	7223
1813	12169
heroin	19690
nobleman	18487
##heater	27847
nyu	27935
serum	20194
clinched	18311
townsend	16139
willis	12688
quarterfinal	29380
thunder	8505
gamble	18503
hips	6700
coin	9226
##bia	11607
##ac	6305
craft	7477
charted	12568
265	20549
derive	18547
[unused415]	420
omar	13192
##10	10790
299	25926
apple	6207
worship	7425
##que	4226
scorer	10835
bridgeport	27986
##vic	7903
impacted	19209
und	6151
rearview	28726
id	8909
emphasized	13155
damn	4365
fisher	8731
clashed	22600
bautista	27845
allmusic	10477
jail	7173
werewolf	12797
uninhabited	24749
butterfly	9112
##ھ	29844
##gram	13113
peace	3521
summary	12654
ᄐ	1467
coded	22402
frontier	8880
##б	29740
clement	12223
hermann	12224
needle	12201
##otic	20214
speaking	4092
within	2306
extract	14817
cause	3426
##scia	27210
ivy	7768
want	2215
hardcore	13076
routine	9410
bounced	13605
sesame	23605
folklore	13104
april	2258
##&	29617
hampshire	7035
sociological	24846
flu	19857
ranch	8086
nearing	23454
##nio	27678
##iji	27821
69	6353
hardest	18263
bowls	15220
verandah	26153
ever	2412
[unused587]	592
[unused703]	708
bicycles	21066
hacked	28719
shaking	5513
crystal	6121
imprint	15738
clifton	16271
protective	9474
champ	24782
brace	17180
tortricidae	27683
appetite	18923
##え	30175
collaborator	18843
tequila	26791
##tan	5794
[unused455]	460
suzy	28722
ions	15956
clause	11075
tyne	17742
pandit	29331
borrowing	23733
elm	17709
judas	25326
sells	15187
##ک	29841
##nsor	29577
guantanamo	23094
thick	4317
reaches	6561
replica	15059
740	25833
##心	30375
##rial	14482
1960	3624
##ffen	18032
chapels	24130
siegel	27996
[unused524]	529
shops	7340
cobb	17176
ছ	1357
philippe	11169
climatic	27301
[unused909]	914
eponymous	15248
bring	3288
energetic	18114
springsteen	26002
deteriorated	20111
despite	2750
[unused380]	385
congo	9030
630	23609
schwartz	16756
alternate	6585
interstate	7553
series	2186
pastoral	13645
laws	4277
teaching	4252
donations	11440
fluorescent	22184
##bill	24457
wealth	7177
panels	9320
atmospheric	12483
scalp	21065
entities	11422
wrapping	12252
scans	27404
proctor	28770
renal	25125
wheeled	17320
##tia	10711
corrections	20983
airing	10499
childbirth	27162
scanner	26221
##ganj	22738
fruits	10962
flat	4257
promoter	15543
abdominal	21419
supporting	4637
##ie	2666
##lford	23211
540	20263
[unused356]	361
commerce	6236
shortest	20047
downloaded	22817
宇	1819
bold	7782
chang	11132
peking	27057
##lley	25105
沢	1898
ancestor	13032
betsy	22396
herzegovina	11453
boo	22017
boy	2879
1853	8933
chip	9090
faltered	26015
songwriter	6009
##word	18351
xiang	27735
presided	15506
vice	3580
suez	21974
columbia	3996
burkina	23089
##bang	25153
mueller	26774
stoke	13299
rebound	27755
##logic	27179
##ulia	20922
##hammer	19742
nodes	14164
keeper	10684
canine	28735
spotting	27963
1703	28366
tormented	29026
##icus	14239
montenegro	13018
gunther	19384
sweden	4701
cook	5660
manitoba	10512
##rum	6824
cheung	22632
##dant	28210
capital	3007
##rac	22648
worthless	22692
[unused133]	138
output	6434
nests	17415
voyager	23493
carson	9806
suffolk	12291
tam	17214
dignitaries	27960
[unused557]	562
##lwyn	29287
interested	4699
ropes	14607
##amp	16613
maltese	18563
arden	26225
strained	12250
sit	4133
ם	1254
friars	24037
##rzy	28534
##ward	7652
##uit	14663
miscellaneous	25408
morphological	24012
evan	9340
##landa	24448
ripped	9157
1973	3381
exposed	6086
1876	7326
##四	30324
曲	1870
horsemen	25431
exhaustion	15575
theta	23963
##inal	13290
bavarian	15097
##asia	15396
reactivated	28577
beds	9705
blow	6271
yoko	28758
shows	3065
warwickshire	18430
cemetery	4528
navigator	20532
cipher	27715
[unused732]	737
wall	2813
1891	6607
puerto	5984
folding	12745
alberto	12007
##ʿ	29714
maison	26420
laughter	7239
gasp	12008
jody	27562
celebrity	8958
timothy	10805
ix	11814
##ろ	30215
authorship	26324
options	7047
experimenting	23781
##ო	29986
ounce	19471
cruz	8096
interfered	28976
ต	1411
working	2551
##at	4017
hamlets	21631
specifically	4919
nods	11232
##勝	30306
hilbert	27434
fossils	11954
armand	20371
soldiers	3548
##cut	12690
ন	1366
ina	27118
phoebe	18188
voices	5755
##ai	4886
eighth	5964
coiled	24599
men	2273
mir	14719
*	1008
wickets	10370
cousins	12334
adequate	11706
pont	21179
porcelain	17767
infant	10527
silently	8601
barnard	22266
brigade	4250
structural	8332
##ni	3490
hint	9374
##ora	6525
jeans	6312
ragged	14202
mirza	18366
barges	27712
lottery	15213
##duk	28351
earrings	27212
##ej	20518
ی	1309
marx	13518
bmg	24499
##bund	27265
purchasing	13131
##far	14971
loyalists	26590
accountable	26771
motionless	19917
log	8833
[unused310]	315
##ew	7974
proportions	19173
197	19975
oblast	10379
topping	22286
spine	8560
camps	7958
[unused596]	601
1618	29029
emery	24294
acheron	21427
lingering	15304
processes	6194
democracy	7072
surge	12058
hurriedly	23878
string	5164
brigades	14589
##ster	6238
optimal	15502
contractors	16728
oriented	8048
mandolin	17687
began	2211
signature	8085
oct	13323
simulated	23599
[unused327]	332
bells	10118
##elia	13902
terry	6609
##20	11387
announced	2623
overshadowed	28604
massachusetts	4404
argue	7475
##osition	19234
infused	29592
quake	27785
hannover	29209
strict	9384
pleasantly	27726
[unused11]	12
war	2162
vicar	12340
percussion	6333
ₚ	1569
##write	26373
publisher	6674
1603	25625
kruger	27823
run	2448
##he	5369
angular	16108
klaus	16536
##bry	25731
reviews	4391
topography	21535
05	5709
1837	9713
kade	26159
employer	11194
engineer	3992
extensions	14305
remarkably	17431
[unused521]	526
clarissa	25260
musical	3315
1728	26833
parlor	18746
sport	4368
##stand	21515
##ᶠ	30047
##boards	15271
cortes	22242
1781	16788
sickness	15556
whig	21632
bowie	14598
[unused763]	768
capacity	3977
argued	5275
##rka	22379
##mund	25574
##edly	26207
evangelical	11295
74	6356
miniature	12973
reproduction	14627
naked	6248
radiation	8249
atomic	9593
enchanted	22454
transportation	5193
calgary	10112
neutrality	21083
##պ	29780
imperialism	28087
penalty	6531
enveloped	25407
journals	9263
omaha	12864
little	2210
wisdom	9866
tau	19982
withdrawal	10534
electoral	6092
sigh	6682
243	22884
comparison	7831
civilians	9272
uruguay	11724
##cius	25393
toad	21344
carlos	5828
##chen	8661
##nty	29405
luther	9678
wars	5233
##ves	6961
##id	3593
expo	16258
mps	12616
causing	4786
lining	14834
outright	13848
##isa	14268
mo	9587
croatia	8097
treating	12318
hawaii	7359
[unused469]	474
treasurer	10211
bunker	15742
replacements	23936
[unused891]	896
marches	20691
##his	24158
virgil	17270
any	2151
cuba	7394
insects	9728
newscasts	24482
georgia	4108
##flower	14156
feudal	16708
missionary	8696
awhile	19511
fulbright	26695
beetles	14538
†	1526
frog	10729
parramatta	22820
clouds	8044
##cton	28312
brightest	26849
cheaper	16269
lame	20342
blankets	15019
http	8299
telling	4129
thankfully	16047
smallest	10479
anne	4776
astor	25159
churchill	10888
concerts	6759
rhineland	21640
maker	9338
wheels	7787
coma	16571
iona	22347
weeping	19750
gunfire	16978
##linger	23101
rugby	4043
eminent	14953
ousted	28368
nielsen	13188
36	4029
blessings	24618
tries	5363
formerly	3839
##ged	5999
emerald	14110
ethiopia	11154
hemingway	27299
bradford	9999
maize	21154
philology	29286
##aina	27971
##phones	19093
startling	19828
##nidae	29135
∘	1599
ち	1662
hostel	21071
aquatics	26649
myths	17218
##男	30438
reached	2584
old	2214
coli	27441
ranks	6938
diminished	15911
snuggled	26867
x	1060
5	1019
sake	8739
##yah	17560
##toy	29578
##hit	16584
##書	30397
academics	15032
vocalists	27478
[unused856]	861
⁄	1535
weird	6881
[unused798]	803
noticing	15103
enthusiasts	20305
westwood	21730
intersection	6840
jess	12245
psycho	18224
breathe	7200
terminus	7342
chris	3782
novice	23131
bradshaw	23762
smallpox	25765
inwardly	28710
ran	2743
2007	2289
[unused920]	925
contender	20127
##space	23058
[unused720]	725
boutique	24611
ars	29393
##aling	21682
##ego	20265
alter	11477
##bird	9001
matt	4717
tackle	11147
bratislava	22992
##hony	27629
adapted	5967
1912	4878
attracts	17771
enclosed	10837
##14	16932
stages	5711
ن	1296
##ந	29922
deployment	10813
vincent	6320
qing	13282
defamation	27652
whaling	23687
juniors	16651
jock	23407
780	28601
[MASK]	103
innocent	7036
neat	15708
caress	21753
55	4583
[unused255]	260
##ule	9307
hamlet	8429
1609	28058
leone	13363
muslims	7486
frames	11048
##hers	22328
formally	6246
sherwood	19427
analytic	23521
initiating	26616
tournament	2977
pillar	14809
##dt	11927
striped	17983
##virus	23350
成	1854
traits	12955
jan	5553
##aring	22397
##eborg	27614
##icides	22698
dorothy	9984
burnley	23028
horribly	27762
attacked	4457
blackish	22032
submission	12339
1667	27643
spell	6297
carts	25568
##line	4179
##genic	16505
seductive	23182
##ια	27432
chemical	5072
chain	4677
colleagues	8628
leopard	16240
rodrigo	18943
menace	19854
##コ	30230
discovering	13648
gifts	9604
mysteriously	29239
[unused780]	785
educational	4547
privately	9139
fatima	27596
captives	21496
muted	22124
1830s	20400
mvp	12041
ky	18712
heartland	27399
accounted	14729
journal	3485
asa	17306
་	1424
ariel	16126
##hila	26415
aunt	5916
name	2171
crowded	10789
redeveloped	28053
portrayal	13954
snooker	26448
nest	9089
gi	21025
[unused366]	371
力	1778
present	2556
sean	5977
providers	11670
nevada	7756
mistakes	12051
gigantic	20193
skimmed	28862
fibre	20962
encompassed	24058
drive	3298
strategically	23972
hardwood	23165
boilers	20412
stimulated	25194
hoop	27669
##太	30338
08	5511
turning	3810
stephen	4459
nelson	5912
demonstrate	10580
##hat	12707
bohemian	18063
thieves	15862
peacekeeping	28364
evident	10358
##ec	8586
##sca	15782
##力	30304
pba	21563
crashed	8007
political	2576
petersburg	8062
##ج	29819
rushes	18545
translation	5449
worm	15485
##ager	17325
##nir	29339
¼	1091
raphael	12551
limiting	14879
kilometres	3717
##ision	19969
griffiths	21960
sitcom	13130
days	2420
conner	17639
clicks	29225
listed	3205
gravity	8992
emmanuel	14459
##cp	21906
achieving	10910
1893	6489
towed	18948
setting	4292
[unused361]	366
ᵣ	1508
stilled	22791
gunmen	28932
##‿	30069
[unused848]	853
უ	1454
jose	4560
makeshift	19368
sunlight	9325
[unused345]	350
見	1948
missouri	5284
dismay	20006
institutions	4896
tango	17609
penalties	12408
##quin	12519
improvisation	24584
twist	9792
deposed	18298
[unused702]	707
##truct	18300
consumption	8381
##sław	23305
partnership	5386
reporters	12060
shimmering	22349
skating	10080
thanks	4283
portion	4664
ʀ	1127
alarm	8598
##rsk	27472
grandmaster	27101
165	13913
arnold	7779
scale	4094
##eer	11510
##west	19650
jaenelle	20757
##vara	24516
tournaments	8504
##iss	14643
financially	13732
posters	14921
transitions	22166
##א	29788
fried	13017
shortened	12641
swam	16849
guilt	8056
ditch	14033
##riders	28116
encountered	8567
##meric	25531
##ock	7432
##ment	3672
shall	4618
buddhist	7992
riot	11421
⋅	1614
addiction	13449
##ground	16365
fiba	13651
##anov	25417
manuscripts	10485
grazing	15400
kimball	26659
福	1926
silent	4333
alvarez	16309
replacing	6419
##mies	28397
specialists	15744
ultimatum	29227
26	2656
cocky	24995
maldives	25059
sources	4216
applied	4162
recalling	21195
arms	2608
democratic	3537
gulf	6084
##logram	24915
rhea	24775
820	26667
smiling	5629
undertaken	10607
miles	2661
townships	13991
zev	27909
[unused120]	125
varieties	9903
islander	12544
manipulate	17708
socket	22278
ar	12098
type	2828
##anies	28064
##iot	25185
[unused399]	404
perez	10730
thinks	6732
carpet	10135
[unused472]	477
##fo	14876
implying	20242
cotton	6557
朝	1874
bertha	25079
##う	30174
##ingham	16445
bassist	9858
##cchi	25955
listings	26213
anya	21728
nestled	22704
lending	18435
thom	19438
vapor	20064
##jah	18878
foreign	3097
tony	4116
##rrell	14069
##bright	26614
##dened	24589
##37	24434
maguire	26196
scooped	20804
chilly	24222
bad	2919
mar	9388
phrases	15672
swiftly	12128
lecture	8835
consulting	10552
throat	3759
culinary	20560
daniela	28541
ٹ	1301
seasoned	28223
##q	4160
fortifications	14507
chan	9212
whitehead	23257
como	18609
landon	20642
##alis	13911
conjecture	22647
proportion	10817
upgrade	12200
##ovo	16059
bangkok	12627
population	2313
abe	14863
jim	3958
##cene	17968
sweetly	22557
£10	26812
coven	25248
criticizing	21289
resulted	4504
workers	3667
classmate	23175
cigar	19135
##野	30489
proteins	8171
vent	18834
reservoir	8071
fireworks	16080
##λ	29727
sy	25353
[unused743]	748
ウ	1696
fact	2755
yi	12316
davey	20436
ն	1231
asteroids	26732
greatly	6551
dean	4670
hopeful	17772
##inger	9912
clenched	8555
မ	1437
julian	6426
mercenaries	19331
森	1882
##ull	18083
[unused670]	675
fund	4636
rower	21984
311	23532
bergman	24544
stacey	19997
selector	27000
ligand	27854
cara	14418
nl	17953
scorpion	22015
##joy	24793
vinnie	24214
banner	9484
exhaust	15095
unmarked	25779
▪	1618
practiced	9051
八	1771
hc	16731
refusing	11193
orphanage	18504
contractual	27948
cyril	16049
##ira	7895
##chase	26300
brows	11347
literary	4706
ss	7020
mascara	27700
overtook	28920
runoff	19550
mounting	15986
##]	29636
moderate	8777
selfish	14337
[unused735]	740
[unused781]	786
sampling	16227
crank	27987
##ɕ	29680
evening	3944
md	9108
avid	18568
##weig	27204
holland	7935
carly	18431
##／	30518
lower	2896
1883	7257
thomas	2726
tiberius	28411
offered	3253
austrian	6161
talented	10904
[unused830]	835
##ila	11733
weakly	17541
shafts	20542
argyle	26503
##dis	10521
urgency	19353
disruption	20461
circumstance	25652
psalms	26130
[...]
